node {
  name: "Placeholder"
  op: "Placeholder"
  attr {
    key: "_output_shapes"
    value {
      list {
        shape {
          dim {
            size: 6000
          }
          dim {
            size: 64
          }
          dim {
            size: 64
          }
          dim {
            size: 64
          }
          dim {
            size: 1
          }
        }
      }
    }
  }
  attr {
    key: "dtype"
    value {
      type: DT_FLOAT
    }
  }
  attr {
    key: "shape"
    value {
      shape {
        dim {
          size: 6000
        }
        dim {
          size: 64
        }
        dim {
          size: 64
        }
        dim {
          size: 64
        }
        dim {
          size: 1
        }
      }
    }
  }
}
node {
  name: "TensorSliceDataset"
  op: "TensorSliceDataset"
  input: "Placeholder"
  attr {
    key: "Toutput_types"
    value {
      list {
        type: DT_FLOAT
      }
    }
  }
  attr {
    key: "_output_shapes"
    value {
      list {
        shape {
        }
      }
    }
  }
  attr {
    key: "output_shapes"
    value {
      list {
        shape {
          dim {
            size: 64
          }
          dim {
            size: 64
          }
          dim {
            size: 64
          }
          dim {
            size: 1
          }
        }
      }
    }
  }
}
node {
  name: "buffer_size"
  op: "Const"
  attr {
    key: "_output_shapes"
    value {
      list {
        shape {
        }
      }
    }
  }
  attr {
    key: "dtype"
    value {
      type: DT_INT64
    }
  }
  attr {
    key: "value"
    value {
      tensor {
        dtype: DT_INT64
        tensor_shape {
        }
        int64_val: 6000
      }
    }
  }
}
node {
  name: "seed"
  op: "Const"
  attr {
    key: "_output_shapes"
    value {
      list {
        shape {
        }
      }
    }
  }
  attr {
    key: "dtype"
    value {
      type: DT_INT64
    }
  }
  attr {
    key: "value"
    value {
      tensor {
        dtype: DT_INT64
        tensor_shape {
        }
        int64_val: 0
      }
    }
  }
}
node {
  name: "seed2"
  op: "Const"
  attr {
    key: "_output_shapes"
    value {
      list {
        shape {
        }
      }
    }
  }
  attr {
    key: "dtype"
    value {
      type: DT_INT64
    }
  }
  attr {
    key: "value"
    value {
      tensor {
        dtype: DT_INT64
        tensor_shape {
        }
        int64_val: 0
      }
    }
  }
}
node {
  name: "ShuffleDataset"
  op: "ShuffleDataset"
  input: "TensorSliceDataset"
  input: "buffer_size"
  input: "seed"
  input: "seed2"
  attr {
    key: "_output_shapes"
    value {
      list {
        shape {
        }
      }
    }
  }
  attr {
    key: "output_shapes"
    value {
      list {
        shape {
          dim {
            size: 64
          }
          dim {
            size: 64
          }
          dim {
            size: 64
          }
          dim {
            size: 1
          }
        }
      }
    }
  }
  attr {
    key: "output_types"
    value {
      list {
        type: DT_FLOAT
      }
    }
  }
  attr {
    key: "reshuffle_each_iteration"
    value {
      b: true
    }
  }
}
node {
  name: "count"
  op: "Const"
  attr {
    key: "_output_shapes"
    value {
      list {
        shape {
        }
      }
    }
  }
  attr {
    key: "dtype"
    value {
      type: DT_INT64
    }
  }
  attr {
    key: "value"
    value {
      tensor {
        dtype: DT_INT64
        tensor_shape {
        }
        int64_val: -1
      }
    }
  }
}
node {
  name: "RepeatDataset"
  op: "RepeatDataset"
  input: "ShuffleDataset"
  input: "count"
  attr {
    key: "_output_shapes"
    value {
      list {
        shape {
        }
      }
    }
  }
  attr {
    key: "output_shapes"
    value {
      list {
        shape {
          dim {
            size: 64
          }
          dim {
            size: 64
          }
          dim {
            size: 64
          }
          dim {
            size: 1
          }
        }
      }
    }
  }
  attr {
    key: "output_types"
    value {
      list {
        type: DT_FLOAT
      }
    }
  }
}
node {
  name: "batch_size"
  op: "Const"
  attr {
    key: "_output_shapes"
    value {
      list {
        shape {
        }
      }
    }
  }
  attr {
    key: "dtype"
    value {
      type: DT_INT64
    }
  }
  attr {
    key: "value"
    value {
      tensor {
        dtype: DT_INT64
        tensor_shape {
        }
        int64_val: 8
      }
    }
  }
}
node {
  name: "drop_remainder"
  op: "Const"
  attr {
    key: "_output_shapes"
    value {
      list {
        shape {
        }
      }
    }
  }
  attr {
    key: "dtype"
    value {
      type: DT_BOOL
    }
  }
  attr {
    key: "value"
    value {
      tensor {
        dtype: DT_BOOL
        tensor_shape {
        }
        bool_val: false
      }
    }
  }
}
node {
  name: "BatchDatasetV2"
  op: "BatchDatasetV2"
  input: "RepeatDataset"
  input: "batch_size"
  input: "drop_remainder"
  attr {
    key: "_output_shapes"
    value {
      list {
        shape {
        }
      }
    }
  }
  attr {
    key: "output_shapes"
    value {
      list {
        shape {
          dim {
            size: -1
          }
          dim {
            size: 64
          }
          dim {
            size: 64
          }
          dim {
            size: 64
          }
          dim {
            size: 1
          }
        }
      }
    }
  }
  attr {
    key: "output_types"
    value {
      list {
        type: DT_FLOAT
      }
    }
  }
  attr {
    key: "parallel_copy"
    value {
      b: false
    }
  }
}
node {
  name: "buffer_size_1"
  op: "Const"
  attr {
    key: "_output_shapes"
    value {
      list {
        shape {
        }
      }
    }
  }
  attr {
    key: "dtype"
    value {
      type: DT_INT64
    }
  }
  attr {
    key: "value"
    value {
      tensor {
        dtype: DT_INT64
        tensor_shape {
        }
        int64_val: 16
      }
    }
  }
}
node {
  name: "PrefetchDataset"
  op: "PrefetchDataset"
  input: "BatchDatasetV2"
  input: "buffer_size_1"
  attr {
    key: "_output_shapes"
    value {
      list {
        shape {
        }
      }
    }
  }
  attr {
    key: "output_shapes"
    value {
      list {
        shape {
          dim {
            size: -1
          }
          dim {
            size: 64
          }
          dim {
            size: 64
          }
          dim {
            size: 64
          }
          dim {
            size: 1
          }
        }
      }
    }
  }
  attr {
    key: "output_types"
    value {
      list {
        type: DT_FLOAT
      }
    }
  }
  attr {
    key: "slack_period"
    value {
      i: 0
    }
  }
}
node {
  name: "optimizations"
  op: "Const"
  attr {
    key: "_output_shapes"
    value {
      list {
        shape {
          dim {
            size: 3
          }
        }
      }
    }
  }
  attr {
    key: "dtype"
    value {
      type: DT_STRING
    }
  }
  attr {
    key: "value"
    value {
      tensor {
        dtype: DT_STRING
        tensor_shape {
          dim {
            size: 3
          }
        }
        string_val: "map_and_batch_fusion"
        string_val: "noop_elimination"
        string_val: "shuffle_and_repeat_fusion"
      }
    }
  }
}
node {
  name: "OptimizeDataset"
  op: "OptimizeDataset"
  input: "PrefetchDataset"
  input: "optimizations"
  attr {
    key: "_output_shapes"
    value {
      list {
        shape {
        }
      }
    }
  }
  attr {
    key: "optimization_configs"
    value {
      list {
        s: "map_vectorization:use_choose_fastest:false"
      }
    }
  }
  attr {
    key: "output_shapes"
    value {
      list {
        shape {
          dim {
            size: -1
          }
          dim {
            size: 64
          }
          dim {
            size: 64
          }
          dim {
            size: 64
          }
          dim {
            size: 1
          }
        }
      }
    }
  }
  attr {
    key: "output_types"
    value {
      list {
        type: DT_FLOAT
      }
    }
  }
}
node {
  name: "ModelDataset"
  op: "ModelDataset"
  input: "OptimizeDataset"
  attr {
    key: "_output_shapes"
    value {
      list {
        shape {
        }
      }
    }
  }
  attr {
    key: "cpu_budget"
    value {
      i: 0
    }
  }
  attr {
    key: "output_shapes"
    value {
      list {
        shape {
          dim {
            size: -1
          }
          dim {
            size: 64
          }
          dim {
            size: 64
          }
          dim {
            size: 64
          }
          dim {
            size: 1
          }
        }
      }
    }
  }
  attr {
    key: "output_types"
    value {
      list {
        type: DT_FLOAT
      }
    }
  }
}
node {
  name: "IteratorV2"
  op: "IteratorV2"
  attr {
    key: "_output_shapes"
    value {
      list {
        shape {
        }
      }
    }
  }
  attr {
    key: "container"
    value {
      s: ""
    }
  }
  attr {
    key: "output_shapes"
    value {
      list {
        shape {
          dim {
            size: -1
          }
          dim {
            size: 64
          }
          dim {
            size: 64
          }
          dim {
            size: 64
          }
          dim {
            size: 1
          }
        }
      }
    }
  }
  attr {
    key: "output_types"
    value {
      list {
        type: DT_FLOAT
      }
    }
  }
  attr {
    key: "shared_name"
    value {
      s: ""
    }
  }
}
node {
  name: "MakeIterator"
  op: "MakeIterator"
  input: "ModelDataset"
  input: "IteratorV2"
  attr {
    key: "_class"
    value {
      list {
        s: "loc:@IteratorV2"
      }
    }
  }
}
node {
  name: "IteratorToStringHandle"
  op: "IteratorToStringHandle"
  input: "IteratorV2"
  attr {
    key: "_output_shapes"
    value {
      list {
        shape {
        }
      }
    }
  }
}
node {
  name: "IteratorGetNext"
  op: "IteratorGetNext"
  input: "IteratorV2"
  attr {
    key: "_output_shapes"
    value {
      list {
        shape {
          dim {
            size: -1
          }
          dim {
            size: 64
          }
          dim {
            size: 64
          }
          dim {
            size: 64
          }
          dim {
            size: 1
          }
        }
      }
    }
  }
  attr {
    key: "output_shapes"
    value {
      list {
        shape {
          dim {
            size: -1
          }
          dim {
            size: 64
          }
          dim {
            size: 64
          }
          dim {
            size: 64
          }
          dim {
            size: 1
          }
        }
      }
    }
  }
  attr {
    key: "output_types"
    value {
      list {
        type: DT_FLOAT
      }
    }
  }
}
node {
  name: "analysis_transform/layer_0/kernel_rdft/Initializer/truncated_normal/shape"
  op: "Const"
  attr {
    key: "_class"
    value {
      list {
        s: "loc:@analysis_transform/layer_0/kernel_rdft"
      }
    }
  }
  attr {
    key: "_output_shapes"
    value {
      list {
        shape {
          dim {
            size: 5
          }
        }
      }
    }
  }
  attr {
    key: "dtype"
    value {
      type: DT_INT32
    }
  }
  attr {
    key: "value"
    value {
      tensor {
        dtype: DT_INT32
        tensor_shape {
          dim {
            size: 5
          }
        }
        tensor_content: "\005\000\000\000\005\000\000\000\005\000\000\000\001\000\000\000 \000\000\000"
      }
    }
  }
}
node {
  name: "analysis_transform/layer_0/kernel_rdft/Initializer/truncated_normal/mean"
  op: "Const"
  attr {
    key: "_class"
    value {
      list {
        s: "loc:@analysis_transform/layer_0/kernel_rdft"
      }
    }
  }
  attr {
    key: "_output_shapes"
    value {
      list {
        shape {
        }
      }
    }
  }
  attr {
    key: "dtype"
    value {
      type: DT_FLOAT
    }
  }
  attr {
    key: "value"
    value {
      tensor {
        dtype: DT_FLOAT
        tensor_shape {
        }
        float_val: 0.0
      }
    }
  }
}
node {
  name: "analysis_transform/layer_0/kernel_rdft/Initializer/truncated_normal/stddev"
  op: "Const"
  attr {
    key: "_class"
    value {
      list {
        s: "loc:@analysis_transform/layer_0/kernel_rdft"
      }
    }
  }
  attr {
    key: "_output_shapes"
    value {
      list {
        shape {
        }
      }
    }
  }
  attr {
    key: "dtype"
    value {
      type: DT_FLOAT
    }
  }
  attr {
    key: "value"
    value {
      tensor {
        dtype: DT_FLOAT
        tensor_shape {
        }
        float_val: 0.10168270766735077
      }
    }
  }
}
node {
  name: "analysis_transform/layer_0/kernel_rdft/Initializer/truncated_normal/TruncatedNormal"
  op: "TruncatedNormal"
  input: "analysis_transform/layer_0/kernel_rdft/Initializer/truncated_normal/shape"
  attr {
    key: "T"
    value {
      type: DT_INT32
    }
  }
  attr {
    key: "_class"
    value {
      list {
        s: "loc:@analysis_transform/layer_0/kernel_rdft"
      }
    }
  }
  attr {
    key: "_output_shapes"
    value {
      list {
        shape {
          dim {
            size: 5
          }
          dim {
            size: 5
          }
          dim {
            size: 5
          }
          dim {
            size: 1
          }
          dim {
            size: 32
          }
        }
      }
    }
  }
  attr {
    key: "dtype"
    value {
      type: DT_FLOAT
    }
  }
  attr {
    key: "seed"
    value {
      i: 0
    }
  }
  attr {
    key: "seed2"
    value {
      i: 0
    }
  }
}
node {
  name: "analysis_transform/layer_0/kernel_rdft/Initializer/truncated_normal/mul"
  op: "Mul"
  input: "analysis_transform/layer_0/kernel_rdft/Initializer/truncated_normal/TruncatedNormal"
  input: "analysis_transform/layer_0/kernel_rdft/Initializer/truncated_normal/stddev"
  attr {
    key: "T"
    value {
      type: DT_FLOAT
    }
  }
  attr {
    key: "_class"
    value {
      list {
        s: "loc:@analysis_transform/layer_0/kernel_rdft"
      }
    }
  }
  attr {
    key: "_output_shapes"
    value {
      list {
        shape {
          dim {
            size: 5
          }
          dim {
            size: 5
          }
          dim {
            size: 5
          }
          dim {
            size: 1
          }
          dim {
            size: 32
          }
        }
      }
    }
  }
}
node {
  name: "analysis_transform/layer_0/kernel_rdft/Initializer/truncated_normal"
  op: "Add"
  input: "analysis_transform/layer_0/kernel_rdft/Initializer/truncated_normal/mul"
  input: "analysis_transform/layer_0/kernel_rdft/Initializer/truncated_normal/mean"
  attr {
    key: "T"
    value {
      type: DT_FLOAT
    }
  }
  attr {
    key: "_class"
    value {
      list {
        s: "loc:@analysis_transform/layer_0/kernel_rdft"
      }
    }
  }
  attr {
    key: "_output_shapes"
    value {
      list {
        shape {
          dim {
            size: 5
          }
          dim {
            size: 5
          }
          dim {
            size: 5
          }
          dim {
            size: 1
          }
          dim {
            size: 32
          }
        }
      }
    }
  }
}
node {
  name: "analysis_transform/layer_0/kernel_rdft/Initializer/Reshape/shape"
  op: "Const"
  attr {
    key: "_class"
    value {
      list {
        s: "loc:@analysis_transform/layer_0/kernel_rdft"
      }
    }
  }
  attr {
    key: "_output_shapes"
    value {
      list {
        shape {
          dim {
            size: 2
          }
        }
      }
    }
  }
  attr {
    key: "dtype"
    value {
      type: DT_INT32
    }
  }
  attr {
    key: "value"
    value {
      tensor {
        dtype: DT_INT32
        tensor_shape {
          dim {
            size: 2
          }
        }
        tensor_content: "\377\377\377\377 \000\000\000"
      }
    }
  }
}
node {
  name: "analysis_transform/layer_0/kernel_rdft/Initializer/Reshape"
  op: "Reshape"
  input: "analysis_transform/layer_0/kernel_rdft/Initializer/truncated_normal"
  input: "analysis_transform/layer_0/kernel_rdft/Initializer/Reshape/shape"
  attr {
    key: "T"
    value {
      type: DT_FLOAT
    }
  }
  attr {
    key: "Tshape"
    value {
      type: DT_INT32
    }
  }
  attr {
    key: "_class"
    value {
      list {
        s: "loc:@analysis_transform/layer_0/kernel_rdft"
      }
    }
  }
  attr {
    key: "_output_shapes"
    value {
      list {
        shape {
          dim {
            size: 125
          }
          dim {
            size: 32
          }
        }
      }
    }
  }
}
node {
  name: "analysis_transform/layer_0/kernel_rdft/Initializer/irdft_5x5x5"
  op: "Const"
  attr {
    key: "_class"
    value {
      list {
        s: "loc:@analysis_transform/layer_0/kernel_rdft"
      }
    }
  }
  attr {
    key: "_output_shapes"
    value {
      list {
        shape {
          dim {
            size: 125
          }
          dim {
            size: 125
          }
        }
      }
    }
  }
  attr {
    key: "dtype"
    value {
      type: DT_FLOAT
    }
  }
  attr {
    key: "value"
    value {
      tensor {
        dtype: DT_FLOAT
        tensor_shape {
          dim {
            size: 125
          }
          dim {
            size: 125
          }
        }
        tensor_content: "\277-\267=\342\206\001>\000\000\000\000\342\206\001>\000\000\000\000\342\206\001>\277-7>\000\000\000\000\277-7>\000\000\000\000\000\000\000\000\000\000\000\000\000\000\000\000\000\000\000\000\000\000\000\000\342\206\001>\277-7>\000\000\000\000\277-7>\000\000\000\000\000\000\000\000\000\000\000\000\000\000\000\000\000\000\000\000\000\000\000\000\342\206\001>\277-7>\000\000\000\000\277-7>\000\000\000\000\277-7>\342\206\201>\000\000\000\000\342\206\201>\000\000\000\000\000\000\000\000\000\000\000\000\000\000\000\000\000\000\000\000\000\000\000\000\277-7>\342\206\201>\000\000\000\000\342\206\201>\000\000\000\000\000\000\000\000\000\000\000\000\000\000\000\000\000\000\000\000\000\000\000\000\000\000\000\000\000\000\000\000\000\000\000\000\000\000\000\000\000\000\000\000\000\000\000\000\000\000\000\000\000\000\000\000\000\000\000\000\000\000\000\000\000\000\000\000\000\000\000\000\000\000\000\000\000\000\000\000\000\000\000\000\000\000\000\000\000\000\000\000\000\000\000\000\000\000\000\000\000\000\000\000\000\000\000\000\000\000\000\000\000\000\000\000\000\000\000\000\000\000\000\000\342\206\001>\277-7>\000\000\000\000\277-7>\000\000\000\000\277-7>\342\206\201>\000\000\000\000\342\206\201>\000\000\000\000\000\000\000\000\000\000\000\000\000\000\000\000\000\000\000\000\000\000\000\000\277-7>\342\206\201>\000\000\000\000\342\206\201>\000\000\000\000\000\000\000\000\000\000\000\000\000\000\000\000\000\000\000\000\000\000\000\000\000\000\000\000\000\000\000\000\000\000\000\000\000\000\000\000\000\000\000\000\000\000\000\000\000\000\000\000\000\000\000\000\000\000\000\000\000\000\000\000\000\000\000\000\000\000\000\000\000\000\000\000\000\000\000\000\000\000\000\000\000\000\000\000\000\000\000\000\000\000\000\000\000\000\000\000\000\000\000\000\000\000\000\000\000\000\000\000\000\000\000\000\000\000\000\000\000\000\000\000\277-\267=\243\032 =\362_\366\2754\224\321\275\233D\230\275\342\206\001>\333kb=\2326.\276\3261\024\276\347V\327\275\000\000\000\000\000\000\000\000\000\000\000\000\000\000\000\000\000\000\000\000\342\206\001>\333kb=\2326.\276\3261\024\276\347V\327\275\000\000\000\000\000\000\000\000\000\000\000\000\000\000\000\000\000\000\000\000\342\206\001>\333kb=\2326.\276\3261\024\276\347V\327\275\277-7>\243\032\240=\362_v\2764\224Q\276\233D\030\276\000\000\000\000\000\000\000\000\000\000\000\000\000\000\000\000\000\000\000\000\277-7>\243\032\240=\362_v\2764\224Q\276\233D\030\276\000\000\000\000\000\000\000\000\000\000\000\000\000\000\000\000\000\000\000\000\000\000\000\000\000\000\000\000\000\000\000\000\000\000\000\000\000\000\000\000\000\000\000\000\000\000\000\000\000\000\000\000\000\000\000\000\000\000\000\000\000\000\000\000\000\000\000\000\000\000\000\000\000\000\000\000\000\000\000\000\000\000\000\000\000\000\000\000\000\000\000\000\000\000\000\000\000\000\000\000\000\000\000\000\000\000\000\000\000\000\000\000\000\000\000\000\000\000\000\000\342\206\001>\333kb=\2326.\276\3261\024\276\347V\327\275\277-7>\243\032\240=\362_v\2764\224Q\276\233D\030\276\000\000\000\000\000\000\000\000\000\000\000\000\000\000\000\000\000\000\000\000\277-7>\243\032\240=\362_v\2764\224Q\276\233D\030\276\000\000\000\000\000\000\000\000\000\000\000\000\000\000\000\000\000\000\000\000\000\000\000\000\000\000\000\000\000\000\000\000\000\000\000\000\000\000\000\000\000\000\000\000\000\000\000\000\000\000\000\000\000\000\000\000\000\000\000\000\000\000\000\000\000\000\000\000\000\000\000\000\000\000\000\000\000\000\000\000\000\000\000\000\000\000\000\000\000\000\000\000\000\000\000\000\000\000\000\000\000\000\000\000\000\000\000\000\000\000\000\000\000\000\000\000\000\000\000\000\277-\267=4\224\321\275\233D\230\275\243\032 =\362_\366=\342\206\001>\3261\024\276\347V\327\275\333kb=\2326.>\000\000\000\000\000\000\000\000\000\000\000\000\000\000\000\000\000\000\000\000\342\206\001>\3261\024\276\347V\327\275\333kb=\2326.>\000\000\000\000\000\000\000\000\000\000\000\000\000\000\000\000\000\000\000\000\342\206\001>\3261\024\276\347V\327\275\333kb=\2326.>\277-7>4\224Q\276\233D\030\276\243\032\240=\362_v>\000\000\000\000\000\000\000\000\000\000\000\000\000\000\000\000\000\000\000\000\277-7>4\224Q\276\233D\030\276\243\032\240=\362_v>\000\000\000\000\000\000\000\000\000\000\000\000\000\000\000\000\000\000\000\000\000\000\000\000\000\000\000\000\000\000\000\000\000\000\000\000\000\000\000\000\000\000\000\000\000\000\000\000\000\000\000\000\000\000\000\000\000\000\000\000\000\000\000\000\000\000\000\000\000\000\000\000\000\000\000\000\000\000\000\000\000\000\000\000\000\000\000\000\000\000\000\000\000\000\000\000\000\000\000\000\000\000\000\000\000\000\000\000\000\000\000\000\000\000\000\000\000\000\000\000\342\206\001>\3261\024\276\347V\327\275\333kb=\2326.>\277-7>4\224Q\276\233D\030\276\243\032\240=\362_v>\000\000\000\000\000\000\000\000\000\000\000\000\000\000\000\000\000\000\000\000\277-7>4\224Q\276\233D\030\276\243\032\240=\362_v>\000\000\000\000\000\000\000\000\000\000\000\000\000\000\000\000\000\000\000\000\000\000\000\000\000\000\000\000\000\000\000\000\000\000\000\000\000\000\000\000\000\000\000\000\000\000\000\000\000\000\000\000\000\000\000\000\000\000\000\000\000\000\000\000\000\000\000\000\000\000\000\000\000\000\000\000\000\000\000\000\000\000\000\000\000\000\000\000\000\000\000\000\000\000\000\000\000\000\000\000\000\000\000\000\000\000\000\000\000\000\000\000\000\000\000\000\000\000\000\000\277-\267=4\224\321\275\233D\230=\243\032 =\362_\366\275\342\206\001>\3261\024\276\347V\327=\333kb=\2326.\276\000\000\000\000\000\000\000\000\000\000\000\000\000\000\000\000\000\000\000\000\342\206\001>\3261\024\276\347V\327=\333kb=\2326.\276\000\000\000\000\000\000\000\000\000\000\000\000\000\000\000\000\000\000\000\000\342\206\001>\3261\024\276\347V\327=\333kb=\2326.\276\277-7>4\224Q\276\233D\030>\243\032\240=\362_v\276\000\000\000\000\000\000\000\000\000\000\000\000\000\000\000\000\000\000\000\000\277-7>4\224Q\276\233D\030>\243\032\240=\362_v\276\000\000\000\000\000\000\000\000\000\000\000\000\000\000\000\000\000\000\000\000\000\000\000\000\000\000\000\000\000\000\000\000\000\000\000\000\000\000\000\000\000\000\000\000\000\000\000\000\000\000\000\000\000\000\000\000\000\000\000\000\000\000\000\000\000\000\000\000\000\000\000\000\000\000\000\000\000\000\000\000\000\000\000\000\000\000\000\000\000\000\000\000\000\000\000\000\000\000\000\000\000\000\000\000\000\000\000\000\000\000\000\000\000\000\000\000\000\000\000\000\342\206\001>\3261\024\276\347V\327=\333kb=\2326.\276\277-7>4\224Q\276\233D\030>\243\032\240=\362_v\276\000\000\000\000\000\000\000\000\000\000\000\000\000\000\000\000\000\000\000\000\277-7>4\224Q\276\233D\030>\243\032\240=\362_v\276\000\000\000\000\000\000\000\000\000\000\000\000\000\000\000\000\000\000\000\000\000\000\000\000\000\000\000\000\000\000\000\000\000\000\000\000\000\000\000\000\000\000\000\000\000\000\000\000\000\000\000\000\000\000\000\000\000\000\000\000\000\000\000\000\000\000\000\000\000\000\000\000\000\000\000\000\000\000\000\000\000\000\000\000\000\000\000\000\000\000\000\000\000\000\000\000\000\000\000\000\000\000\000\000\000\000\000\000\000\000\000\000\000\000\000\000\000\000\000\000\277-\267=\243\032 =\362_\366=4\224\321\275\233D\230=\342\206\001>\333kb=\2326.>\3261\024\276\347V\327=\000\000\000\000\000\000\000\000\000\000\000\000\000\000\000\000\000\000\000\000\342\206\001>\333kb=\2326.>\3261\024\276\347V\327=\000\000\000\000\000\000\000\000\000\000\000\000\000\000\000\000\000\000\000\000\342\206\001>\333kb=\2326.>\3261\024\276\347V\327=\277-7>\243\032\240=\362_v>4\224Q\276\233D\030>\000\000\000\000\000\000\000\000\000\000\000\000\000\000\000\000\000\000\000\000\277-7>\243\032\240=\362_v>4\224Q\276\233D\030>\000\000\000\000\000\000\000\000\000\000\000\000\000\000\000\000\000\000\000\000\000\000\000\000\000\000\000\000\000\000\000\000\000\000\000\000\000\000\000\000\000\000\000\000\000\000\000\000\000\000\000\000\000\000\000\000\000\000\000\000\000\000\000\000\000\000\000\000\000\000\000\000\000\000\000\000\000\000\000\000\000\000\000\000\000\000\000\000\000\000\000\000\000\000\000\000\000\000\000\000\000\000\000\000\000\000\000\000\000\000\000\000\000\000\000\000\000\000\000\000\342\206\001>\333kb=\2326.>\3261\024\276\347V\327=\277-7>\243\032\240=\362_v>4\224Q\276\233D\030>\000\000\000\000\000\000\000\000\000\000\000\000\000\000\000\000\000\000\000\000\277-7>\243\032\240=\362_v>4\224Q\276\233D\030>\000\000\000\000\000\000\000\000\000\000\000\000\000\000\000\000\000\000\000\000\000\000\000\000\000\000\000\000\000\000\000\000\000\000\000\000\000\000\000\000\000\000\000\000\000\000\000\000\000\000\000\000\000\000\000\000\000\000\000\000\000\000\000\000\000\000\000\000\000\000\000\000\000\000\000\000\000\000\000\000\000\000\000\000\000\000\000\000\000\000\000\000\000\000\000\000\000\000\000\000\000\000\000\000\000\000\000\000\000\000\000\000\000\000\000\000\000\000\000\000\277-\267=\342\206\001>\000\000\000\000\342\206\001>\000\000\000\000\243\032 =\333kb=\000\000\000\000\333kb=\000\000\000\000\362_\366\275\2326.\276\000\000\000\000\2326.\276\000\000\000\0004\224\321\275\3261\024\276\000\000\000\000\3261\024\276\000\000\000\000\233D\230\275\347V\327\275\000\000\000\000\347V\327\275\000\000\000\000\342\206\001>\277-7>\000\000\000\000\277-7>\000\000\000\000\333kb=\243\032\240=\000\000\000\000\243\032\240=\000\000\000\000\2326.\276\362_v\276\000\000\000\000\362_v\276\000\000\000\000\3261\024\2764\224Q\276\000\000\000\0004\224Q\276\000\000\000\000\347V\327\275\233D\030\276\000\000\000\000\233D\030\276\000\000\000\000\000\000\000\000\000\000\000\000\000\000\000\000\000\000\000\000\000\000\000\000\000\000\000\000\000\000\000\000\000\000\000\000\000\000\000\000\000\000\000\000\000\000\000\000\000\000\000\000\000\000\000\000\000\000\000\000\000\000\000\000\000\000\000\000\000\000\000\000\000\000\000\000\000\000\000\000\000\000\000\000\000\000\000\000\000\000\000\000\000\000\000\000\000\000\000\000\000\000\000\000\342\206\001>\277-7>\000\000\000\000\277-7>\000\000\000\000\333kb=\243\032\240=\000\000\000\000\243\032\240=\000\000\000\000\2326.\276\362_v\276\000\000\000\000\362_v\276\000\000\000\000\3261\024\2764\224Q\276\000\000\000\0004\224Q\276\000\000\000\000\347V\327\275\233D\030\276\000\000\000\000\233D\030\276\000\000\000\000\000\000\000\000\000\000\000\000\000\000\000\000\000\000\000\000\000\000\000\000\000\000\000\000\000\000\000\000\000\000\000\000\000\000\000\000\000\000\000\000\000\000\000\000\000\000\000\000\000\000\000\000\000\000\000\000\000\000\000\000\000\000\000\000\000\000\000\000\000\000\000\000\000\000\000\000\000\000\000\000\000\000\000\000\000\000\000\000\000\000\000\000\000\000\000\000\000\000\000\000\277-\267=\243\032 =\362_\366\2754\224\321\275\233D\230\275\243\032 =\242\357\213<\347VW\275\277-7\275M\026\005\275\362_\366\275\347VW\275\312\257%>\007\361\014>\315\314\314=4\224\321\275\277-7\275\007\361\014>\265\310\357=\2326\256=\233D\230\275M\026\005\275\315\314\314=\2326\256=\220%}=\342\206\001>\333kb=\2326.\276\3261\024\276\347V\327\275\333kb=D\346\305<\233D\230\275\342\206\201\275\2566<\275\2326.\276\233D\230\275\374Pj>GRG>\303\320\020>\3261\024\276\342\206\201\275GRG>\213\215)>\362_\366=\347V\327\275\2566<\275\303\320\020>\362_\366=t\000\263=\000\000\000\000\000\000\000\000\000\000\000\000\000\000\000\000\000\000\000\000\000\000\000\000\000\000\000\000\000\000\000\000\000\000\000\000\000\000\000\000\000\000\000\000\000\000\000\000\000\000\000\000\000\000\000\000\000\000\000\000\000\000\000\000\000\000\000\000\000\000\000\000\000\000\000\000\000\000\000\000\000\000\000\000\000\000\000\000\000\000\000\000\000\000\000\000\000\000\000\000\342\206\001>\333kb=\2326.\276\3261\024\276\347V\327\275\333kb=D\346\305<\233D\230\275\342\206\201\275\2566<\275\2326.\276\233D\230\275\374Pj>GRG>\303\320\020>\3261\024\276\342\206\201\275GRG>\213\215)>\362_\366=\347V\327\275\2566<\275\303\320\020>\362_\366=t\000\263=\000\000\000\000\000\000\000\000\000\000\000\000\000\000\000\000\000\000\000\000\000\000\000\000\000\000\000\000\000\000\000\000\000\000\000\000\000\000\000\000\000\000\000\000\000\000\000\000\000\000\000\000\000\000\000\000\000\000\000\000\000\000\000\000\000\000\000\000\000\000\000\000\000\000\000\000\000\000\000\000\000\000\000\000\000\000\000\000\000\000\000\000\000\000\000\000\000\000\000\000\277-\267=4\224\321\275\233D\230\275\243\032 =\362_\366=\243\032 =\277-7\275M\026\005\275\242\357\213<\347VW=\362_\366\275\007\361\014>\315\314\314=\347VW\275\312\257%\2764\224\321\275\265\310\357=\2326\256=\277-7\275\007\361\014\276\233D\230\275\2326\256=\220%}=M\026\005\275\315\314\314\275\342\206\001>\3261\024\276\347V\327\275\333kb=\2326.>\333kb=\342\206\201\275\2566<\275D\346\305<\233D\230=\2326.\276GRG>\303\320\020>\233D\230\275\374Pj\276\3261\024\276\213\215)>\362_\366=\342\206\201\275GRG\276\347V\327\275\362_\366=t\000\263=\2566<\275\303\320\020\276\000\000\000\000\000\000\000\000\000\000\000\000\000\000\000\000\000\000\000\000\000\000\000\000\000\000\000\000\000\000\000\000\000\000\000\000\000\000\000\000\000\000\000\000\000\000\000\000\000\000\000\000\000\000\000\000\000\000\000\000\000\000\000\000\000\000\000\000\000\000\000\000\000\000\000\000\000\000\000\000\000\000\000\000\000\000\000\000\000\000\000\000\000\000\000\000\000\000\000\000\342\206\001>\3261\024\276\347V\327\275\333kb=\2326.>\333kb=\342\206\201\275\2566<\275D\346\305<\233D\230=\2326.\276GRG>\303\320\020>\233D\230\275\374Pj\276\3261\024\276\213\215)>\362_\366=\342\206\201\275GRG\276\347V\327\275\362_\366=t\000\263=\2566<\275\303\320\020\276\000\000\000\000\000\000\000\000\000\000\000\000\000\000\000\000\000\000\000\000\000\000\000\000\000\000\000\000\000\000\000\000\000\000\000\000\000\000\000\000\000\000\000\000\000\000\000\000\000\000\000\000\000\000\000\000\000\000\000\000\000\000\000\000\000\000\000\000\000\000\000\000\000\000\000\000\000\000\000\000\000\000\000\000\000\000\000\000\000\000\000\000\000\000\000\000\000\000\000\000\277-\267=4\224\321\275\233D\230=\243\032 =\362_\366\275\243\032 =\277-7\275M\026\005=\242\357\213<\347VW\275\362_\366\275\007\361\014>\315\314\314\275\347VW\275\312\257%>4\224\321\275\265\310\357=\2326\256\275\277-7\275\007\361\014>\233D\230\275\2326\256=\220%}\275M\026\005\275\315\314\314=\342\206\001>\3261\024\276\347V\327=\333kb=\2326.\276\333kb=\342\206\201\275\2566<=D\346\305<\233D\230\275\2326.\276GRG>\303\320\020\276\233D\230\275\374Pj>\3261\024\276\213\215)>\362_\366\275\342\206\201\275GRG>\347V\327\275\362_\366=t\000\263\275\2566<\275\303\320\020>\000\000\000\000\000\000\000\000\000\000\000\000\000\000\000\000\000\000\000\000\000\000\000\000\000\000\000\000\000\000\000\000\000\000\000\000\000\000\000\000\000\000\000\000\000\000\000\000\000\000\000\000\000\000\000\000\000\000\000\000\000\000\000\000\000\000\000\000\000\000\000\000\000\000\000\000\000\000\000\000\000\000\000\000\000\000\000\000\000\000\000\000\000\000\000\000\000\000\000\000\342\206\001>\3261\024\276\347V\327=\333kb=\2326.\276\333kb=\342\206\201\275\2566<=D\346\305<\233D\230\275\2326.\276GRG>\303\320\020\276\233D\230\275\374Pj>\3261\024\276\213\215)>\362_\366\275\342\206\201\275GRG>\347V\327\275\362_\366=t\000\263\275\2566<\275\303\320\020>\000\000\000\000\000\000\000\000\000\000\000\000\000\000\000\000\000\000\000\000\000\000\000\000\000\000\000\000\000\000\000\000\000\000\000\000\000\000\000\000\000\000\000\000\000\000\000\000\000\000\000\000\000\000\000\000\000\000\000\000\000\000\000\000\000\000\000\000\000\000\000\000\000\000\000\000\000\000\000\000\000\000\000\000\000\000\000\000\000\000\000\000\000\000\000\000\000\000\000\000\277-\267=\243\032 =\362_\366=4\224\321\275\233D\230=\243\032 =\242\357\213<\347VW=\277-7\275M\026\005=\362_\366\275\347VW\275\312\257%\276\007\361\014>\315\314\314\2754\224\321\275\277-7\275\007\361\014\276\265\310\357=\2326\256\275\233D\230\275M\026\005\275\315\314\314\275\2326\256=\220%}\275\342\206\001>\333kb=\2326.>\3261\024\276\347V\327=\333kb=D\346\305<\233D\230=\342\206\201\275\2566<=\2326.\276\233D\230\275\374Pj\276GRG>\303\320\020\276\3261\024\276\342\206\201\275GRG\276\213\215)>\362_\366\275\347V\327\275\2566<\275\303\320\020\276\362_\366=t\000\263\275\000\000\000\000\000\000\000\000\000\000\000\000\000\000\000\000\000\000\000\000\000\000\000\000\000\000\000\000\000\000\000\000\000\000\000\000\000\000\000\000\000\000\000\000\000\000\000\000\000\000\000\000\000\000\000\000\000\000\000\000\000\000\000\000\000\000\000\000\000\000\000\000\000\000\000\000\000\000\000\000\000\000\000\000\000\000\000\000\000\000\000\000\000\000\000\000\000\000\000\000\342\206\001>\333kb=\2326.>\3261\024\276\347V\327=\333kb=D\346\305<\233D\230=\342\206\201\275\2566<=\2326.\276\233D\230\275\374Pj\276GRG>\303\320\020\276\3261\024\276\342\206\201\275GRG\276\213\215)>\362_\366\275\347V\327\275\2566<\275\303\320\020\276\362_\366=t\000\263\275\000\000\000\000\000\000\000\000\000\000\000\000\000\000\000\000\000\000\000\000\000\000\000\000\000\000\000\000\000\000\000\000\000\000\000\000\000\000\000\000\000\000\000\000\000\000\000\000\000\000\000\000\000\000\000\000\000\000\000\000\000\000\000\000\000\000\000\000\000\000\000\000\000\000\000\000\000\000\000\000\000\000\000\000\000\000\000\000\000\000\000\000\000\000\000\000\000\000\000\000\277-\267=\342\206\001>\000\000\000\000\342\206\001>\000\000\000\0004\224\321\275\3261\024\276\000\000\000\000\3261\024\276\000\000\000\000\233D\230\275\347V\327\275\000\000\000\000\347V\327\275\000\000\000\000\243\032 =\333kb=\000\000\000\000\333kb=\000\000\000\000\362_\366=\2326.>\000\000\000\000\2326.>\000\000\000\000\342\206\001>\277-7>\000\000\000\000\277-7>\000\000\000\000\3261\024\2764\224Q\276\000\000\000\0004\224Q\276\000\000\000\000\347V\327\275\233D\030\276\000\000\000\000\233D\030\276\000\000\000\000\333kb=\243\032\240=\000\000\000\000\243\032\240=\000\000\000\000\2326.>\362_v>\000\000\000\000\362_v>\000\000\000\000\000\000\000\000\000\000\000\000\000\000\000\000\000\000\000\000\000\000\000\000\000\000\000\000\000\000\000\000\000\000\000\000\000\000\000\000\000\000\000\000\000\000\000\000\000\000\000\000\000\000\000\000\000\000\000\000\000\000\000\000\000\000\000\000\000\000\000\000\000\000\000\000\000\000\000\000\000\000\000\000\000\000\000\000\000\000\000\000\000\000\000\000\000\000\000\000\000\000\000\000\342\206\001>\277-7>\000\000\000\000\277-7>\000\000\000\000\3261\024\2764\224Q\276\000\000\000\0004\224Q\276\000\000\000\000\347V\327\275\233D\030\276\000\000\000\000\233D\030\276\000\000\000\000\333kb=\243\032\240=\000\000\000\000\243\032\240=\000\000\000\000\2326.>\362_v>\000\000\000\000\362_v>\000\000\000\000\000\000\000\000\000\000\000\000\000\000\000\000\000\000\000\000\000\000\000\000\000\000\000\000\000\000\000\000\000\000\000\000\000\000\000\000\000\000\000\000\000\000\000\000\000\000\000\000\000\000\000\000\000\000\000\000\000\000\000\000\000\000\000\000\000\000\000\000\000\000\000\000\000\000\000\000\000\000\000\000\000\000\000\000\000\000\000\000\000\000\000\000\000\000\000\000\000\000\000\000\277-\267=\243\032 =\362_\366\2754\224\321\275\233D\230\2754\224\321\275\277-7\275\007\361\014>\265\310\357=\2326\256=\233D\230\275M\026\005\275\315\314\314=\2326\256=\220%}=\243\032 =\242\357\213<\347VW\275\277-7\275M\026\005\275\362_\366=\347VW=\312\257%\276\007\361\014\276\315\314\314\275\342\206\001>\333kb=\2326.\276\3261\024\276\347V\327\275\3261\024\276\342\206\201\275GRG>\213\215)>\362_\366=\347V\327\275\2566<\275\303\320\020>\362_\366=t\000\263=\333kb=D\346\305<\233D\230\275\342\206\201\275\2566<\275\2326.>\233D\230=\374Pj\276GRG\276\303\320\020\276\000\000\000\000\000\000\000\000\000\000\000\000\000\000\000\000\000\000\000\000\000\000\000\000\000\000\000\000\000\000\000\000\000\000\000\000\000\000\000\000\000\000\000\000\000\000\000\000\000\000\000\000\000\000\000\000\000\000\000\000\000\000\000\000\000\000\000\000\000\000\000\000\000\000\000\000\000\000\000\000\000\000\000\000\000\000\000\000\000\000\000\000\000\000\000\000\000\000\000\000\342\206\001>\333kb=\2326.\276\3261\024\276\347V\327\275\3261\024\276\342\206\201\275GRG>\213\215)>\362_\366=\347V\327\275\2566<\275\303\320\020>\362_\366=t\000\263=\333kb=D\346\305<\233D\230\275\342\206\201\275\2566<\275\2326.>\233D\230=\374Pj\276GRG\276\303\320\020\276\000\000\000\000\000\000\000\000\000\000\000\000\000\000\000\000\000\000\000\000\000\000\000\000\000\000\000\000\000\000\000\000\000\000\000\000\000\000\000\000\000\000\000\000\000\000\000\000\000\000\000\000\000\000\000\000\000\000\000\000\000\000\000\000\000\000\000\000\000\000\000\000\000\000\000\000\000\000\000\000\000\000\000\000\000\000\000\000\000\000\000\000\000\000\000\000\000\000\000\000\277-\267=4\224\321\275\233D\230\275\243\032 =\362_\366=4\224\321\275\265\310\357=\2326\256=\277-7\275\007\361\014\276\233D\230\275\2326\256=\220%}=M\026\005\275\315\314\314\275\243\032 =\277-7\275M\026\005\275\242\357\213<\347VW=\362_\366=\007\361\014\276\315\314\314\275\347VW=\312\257%>\342\206\001>\3261\024\276\347V\327\275\333kb=\2326.>\3261\024\276\213\215)>\362_\366=\342\206\201\275GRG\276\347V\327\275\362_\366=t\000\263=\2566<\275\303\320\020\276\333kb=\342\206\201\275\2566<\275D\346\305<\233D\230=\2326.>GRG\276\303\320\020\276\233D\230=\374Pj>\000\000\000\000\000\000\000\000\000\000\000\000\000\000\000\000\000\000\000\000\000\000\000\000\000\000\000\000\000\000\000\000\000\000\000\000\000\000\000\000\000\000\000\000\000\000\000\000\000\000\000\000\000\000\000\000\000\000\000\000\000\000\000\000\000\000\000\000\000\000\000\000\000\000\000\000\000\000\000\000\000\000\000\000\000\000\000\000\000\000\000\000\000\000\000\000\000\000\000\000\342\206\001>\3261\024\276\347V\327\275\333kb=\2326.>\3261\024\276\213\215)>\362_\366=\342\206\201\275GRG\276\347V\327\275\362_\366=t\000\263=\2566<\275\303\320\020\276\333kb=\342\206\201\275\2566<\275D\346\305<\233D\230=\2326.>GRG\276\303\320\020\276\233D\230=\374Pj>\000\000\000\000\000\000\000\000\000\000\000\000\000\000\000\000\000\000\000\000\000\000\000\000\000\000\000\000\000\000\000\000\000\000\000\000\000\000\000\000\000\000\000\000\000\000\000\000\000\000\000\000\000\000\000\000\000\000\000\000\000\000\000\000\000\000\000\000\000\000\000\000\000\000\000\000\000\000\000\000\000\000\000\000\000\000\000\000\000\000\000\000\000\000\000\000\000\000\000\000\277-\267=4\224\321\275\233D\230=\243\032 =\362_\366\2754\224\321\275\265\310\357=\2326\256\275\277-7\275\007\361\014>\233D\230\275\2326\256=\220%}\275M\026\005\275\315\314\314=\243\032 =\277-7\275M\026\005=\242\357\213<\347VW\275\362_\366=\007\361\014\276\315\314\314=\347VW=\312\257%\276\342\206\001>\3261\024\276\347V\327=\333kb=\2326.\276\3261\024\276\213\215)>\362_\366\275\342\206\201\275GRG>\347V\327\275\362_\366=t\000\263\275\2566<\275\303\320\020>\333kb=\342\206\201\275\2566<=D\346\305<\233D\230\275\2326.>GRG\276\303\320\020>\233D\230=\374Pj\276\000\000\000\000\000\000\000\000\000\000\000\000\000\000\000\000\000\000\000\000\000\000\000\000\000\000\000\000\000\000\000\000\000\000\000\000\000\000\000\000\000\000\000\000\000\000\000\000\000\000\000\000\000\000\000\000\000\000\000\000\000\000\000\000\000\000\000\000\000\000\000\000\000\000\000\000\000\000\000\000\000\000\000\000\000\000\000\000\000\000\000\000\000\000\000\000\000\000\000\000\342\206\001>\3261\024\276\347V\327=\333kb=\2326.\276\3261\024\276\213\215)>\362_\366\275\342\206\201\275GRG>\347V\327\275\362_\366=t\000\263\275\2566<\275\303\320\020>\333kb=\342\206\201\275\2566<=D\346\305<\233D\230\275\2326.>GRG\276\303\320\020>\233D\230=\374Pj\276\000\000\000\000\000\000\000\000\000\000\000\000\000\000\000\000\000\000\000\000\000\000\000\000\000\000\000\000\000\000\000\000\000\000\000\000\000\000\000\000\000\000\000\000\000\000\000\000\000\000\000\000\000\000\000\000\000\000\000\000\000\000\000\000\000\000\000\000\000\000\000\000\000\000\000\000\000\000\000\000\000\000\000\000\000\000\000\000\000\000\000\000\000\000\000\000\000\000\000\000\277-\267=\243\032 =\362_\366=4\224\321\275\233D\230=4\224\321\275\277-7\275\007\361\014\276\265\310\357=\2326\256\275\233D\230\275M\026\005\275\315\314\314\275\2326\256=\220%}\275\243\032 =\242\357\213<\347VW=\277-7\275M\026\005=\362_\366=\347VW=\312\257%>\007\361\014\276\315\314\314=\342\206\001>\333kb=\2326.>\3261\024\276\347V\327=\3261\024\276\342\206\201\275GRG\276\213\215)>\362_\366\275\347V\327\275\2566<\275\303\320\020\276\362_\366=t\000\263\275\333kb=D\346\305<\233D\230=\342\206\201\275\2566<=\2326.>\233D\230=\374Pj>GRG\276\303\320\020>\000\000\000\000\000\000\000\000\000\000\000\000\000\000\000\000\000\000\000\000\000\000\000\000\000\000\000\000\000\000\000\000\000\000\000\000\000\000\000\000\000\000\000\000\000\000\000\000\000\000\000\000\000\000\000\000\000\000\000\000\000\000\000\000\000\000\000\000\000\000\000\000\000\000\000\000\000\000\000\000\000\000\000\000\000\000\000\000\000\000\000\000\000\000\000\000\000\000\000\000\342\206\001>\333kb=\2326.>\3261\024\276\347V\327=\3261\024\276\342\206\201\275GRG\276\213\215)>\362_\366\275\347V\327\275\2566<\275\303\320\020\276\362_\366=t\000\263\275\333kb=D\346\305<\233D\230=\342\206\201\275\2566<=\2326.>\233D\230=\374Pj>GRG\276\303\320\020>\000\000\000\000\000\000\000\000\000\000\000\000\000\000\000\000\000\000\000\000\000\000\000\000\000\000\000\000\000\000\000\000\000\000\000\000\000\000\000\000\000\000\000\000\000\000\000\000\000\000\000\000\000\000\000\000\000\000\000\000\000\000\000\000\000\000\000\000\000\000\000\000\000\000\000\000\000\000\000\000\000\000\000\000\000\000\000\000\000\000\000\000\000\000\000\000\000\000\000\000\277-\267=\342\206\001>\000\000\000\000\342\206\001>\000\000\000\0004\224\321\275\3261\024\276\000\000\000\000\3261\024\276\000\000\000\000\233D\230=\347V\327=\000\000\000\000\347V\327=\000\000\000\000\243\032 =\333kb=\000\000\000\000\333kb=\000\000\000\000\362_\366\275\2326.\276\000\000\000\000\2326.\276\000\000\000\000\342\206\001>\277-7>\000\000\000\000\277-7>\000\000\000\000\3261\024\2764\224Q\276\000\000\000\0004\224Q\276\000\000\000\000\347V\327=\233D\030>\000\000\000\000\233D\030>\000\000\000\000\333kb=\243\032\240=\000\000\000\000\243\032\240=\000\000\000\000\2326.\276\362_v\276\000\000\000\000\362_v\276\000\000\000\000\000\000\000\000\000\000\000\000\000\000\000\000\000\000\000\000\000\000\000\000\000\000\000\000\000\000\000\000\000\000\000\000\000\000\000\000\000\000\000\000\000\000\000\000\000\000\000\000\000\000\000\000\000\000\000\000\000\000\000\000\000\000\000\000\000\000\000\000\000\000\000\000\000\000\000\000\000\000\000\000\000\000\000\000\000\000\000\000\000\000\000\000\000\000\000\000\000\000\000\000\342\206\001>\277-7>\000\000\000\000\277-7>\000\000\000\000\3261\024\2764\224Q\276\000\000\000\0004\224Q\276\000\000\000\000\347V\327=\233D\030>\000\000\000\000\233D\030>\000\000\000\000\333kb=\243\032\240=\000\000\000\000\243\032\240=\000\000\000\000\2326.\276\362_v\276\000\000\000\000\362_v\276\000\000\000\000\000\000\000\000\000\000\000\000\000\000\000\000\000\000\000\000\000\000\000\000\000\000\000\000\000\000\000\000\000\000\000\000\000\000\000\000\000\000\000\000\000\000\000\000\000\000\000\000\000\000\000\000\000\000\000\000\000\000\000\000\000\000\000\000\000\000\000\000\000\000\000\000\000\000\000\000\000\000\000\000\000\000\000\000\000\000\000\000\000\000\000\000\000\000\000\000\000\000\000\000\277-\267=\243\032 =\362_\366\2754\224\321\275\233D\230\2754\224\321\275\277-7\275\007\361\014>\265\310\357=\2326\256=\233D\230=M\026\005=\315\314\314\275\2326\256\275\220%}\275\243\032 =\242\357\213<\347VW\275\277-7\275M\026\005\275\362_\366\275\347VW\275\312\257%>\007\361\014>\315\314\314=\342\206\001>\333kb=\2326.\276\3261\024\276\347V\327\275\3261\024\276\342\206\201\275GRG>\213\215)>\362_\366=\347V\327=\2566<=\303\320\020\276\362_\366\275t\000\263\275\333kb=D\346\305<\233D\230\275\342\206\201\275\2566<\275\2326.\276\233D\230\275\374Pj>GRG>\303\320\020>\000\000\000\000\000\000\000\000\000\000\000\000\000\000\000\000\000\000\000\000\000\000\000\000\000\000\000\000\000\000\000\000\000\000\000\000\000\000\000\000\000\000\000\000\000\000\000\000\000\000\000\000\000\000\000\000\000\000\000\000\000\000\000\000\000\000\000\000\000\000\000\000\000\000\000\000\000\000\000\000\000\000\000\000\000\000\000\000\000\000\000\000\000\000\000\000\000\000\000\000\342\206\001>\333kb=\2326.\276\3261\024\276\347V\327\275\3261\024\276\342\206\201\275GRG>\213\215)>\362_\366=\347V\327=\2566<=\303\320\020\276\362_\366\275t\000\263\275\333kb=D\346\305<\233D\230\275\342\206\201\275\2566<\275\2326.\276\233D\230\275\374Pj>GRG>\303\320\020>\000\000\000\000\000\000\000\000\000\000\000\000\000\000\000\000\000\000\000\000\000\000\000\000\000\000\000\000\000\000\000\000\000\000\000\000\000\000\000\000\000\000\000\000\000\000\000\000\000\000\000\000\000\000\000\000\000\000\000\000\000\000\000\000\000\000\000\000\000\000\000\000\000\000\000\000\000\000\000\000\000\000\000\000\000\000\000\000\000\000\000\000\000\000\000\000\000\000\000\000\277-\267=4\224\321\275\233D\230\275\243\032 =\362_\366=4\224\321\275\265\310\357=\2326\256=\277-7\275\007\361\014\276\233D\230=\2326\256\275\220%}\275M\026\005=\315\314\314=\243\032 =\277-7\275M\026\005\275\242\357\213<\347VW=\362_\366\275\007\361\014>\315\314\314=\347VW\275\312\257%\276\342\206\001>\3261\024\276\347V\327\275\333kb=\2326.>\3261\024\276\213\215)>\362_\366=\342\206\201\275GRG\276\347V\327=\362_\366\275t\000\263\275\2566<=\303\320\020>\333kb=\342\206\201\275\2566<\275D\346\305<\233D\230=\2326.\276GRG>\303\320\020>\233D\230\275\374Pj\276\000\000\000\000\000\000\000\000\000\000\000\000\000\000\000\000\000\000\000\000\000\000\000\000\000\000\000\000\000\000\000\000\000\000\000\000\000\000\000\000\000\000\000\000\000\000\000\000\000\000\000\000\000\000\000\000\000\000\000\000\000\000\000\000\000\000\000\000\000\000\000\000\000\000\000\000\000\000\000\000\000\000\000\000\000\000\000\000\000\000\000\000\000\000\000\000\000\000\000\000\342\206\001>\3261\024\276\347V\327\275\333kb=\2326.>\3261\024\276\213\215)>\362_\366=\342\206\201\275GRG\276\347V\327=\362_\366\275t\000\263\275\2566<=\303\320\020>\333kb=\342\206\201\275\2566<\275D\346\305<\233D\230=\2326.\276GRG>\303\320\020>\233D\230\275\374Pj\276\000\000\000\000\000\000\000\000\000\000\000\000\000\000\000\000\000\000\000\000\000\000\000\000\000\000\000\000\000\000\000\000\000\000\000\000\000\000\000\000\000\000\000\000\000\000\000\000\000\000\000\000\000\000\000\000\000\000\000\000\000\000\000\000\000\000\000\000\000\000\000\000\000\000\000\000\000\000\000\000\000\000\000\000\000\000\000\000\000\000\000\000\000\000\000\000\000\000\000\000\277-\267=4\224\321\275\233D\230=\243\032 =\362_\366\2754\224\321\275\265\310\357=\2326\256\275\277-7\275\007\361\014>\233D\230=\2326\256\275\220%}=M\026\005=\315\314\314\275\243\032 =\277-7\275M\026\005=\242\357\213<\347VW\275\362_\366\275\007\361\014>\315\314\314\275\347VW\275\312\257%>\342\206\001>\3261\024\276\347V\327=\333kb=\2326.\276\3261\024\276\213\215)>\362_\366\275\342\206\201\275GRG>\347V\327=\362_\366\275t\000\263=\2566<=\303\320\020\276\333kb=\342\206\201\275\2566<=D\346\305<\233D\230\275\2326.\276GRG>\303\320\020\276\233D\230\275\374Pj>\000\000\000\000\000\000\000\000\000\000\000\000\000\000\000\000\000\000\000\000\000\000\000\000\000\000\000\000\000\000\000\000\000\000\000\000\000\000\000\000\000\000\000\000\000\000\000\000\000\000\000\000\000\000\000\000\000\000\000\000\000\000\000\000\000\000\000\000\000\000\000\000\000\000\000\000\000\000\000\000\000\000\000\000\000\000\000\000\000\000\000\000\000\000\000\000\000\000\000\000\342\206\001>\3261\024\276\347V\327=\333kb=\2326.\276\3261\024\276\213\215)>\362_\366\275\342\206\201\275GRG>\347V\327=\362_\366\275t\000\263=\2566<=\303\320\020\276\333kb=\342\206\201\275\2566<=D\346\305<\233D\230\275\2326.\276GRG>\303\320\020\276\233D\230\275\374Pj>\000\000\000\000\000\000\000\000\000\000\000\000\000\000\000\000\000\000\000\000\000\000\000\000\000\000\000\000\000\000\000\000\000\000\000\000\000\000\000\000\000\000\000\000\000\000\000\000\000\000\000\000\000\000\000\000\000\000\000\000\000\000\000\000\000\000\000\000\000\000\000\000\000\000\000\000\000\000\000\000\000\000\000\000\000\000\000\000\000\000\000\000\000\000\000\000\000\000\000\000\277-\267=\243\032 =\362_\366=4\224\321\275\233D\230=4\224\321\275\277-7\275\007\361\014\276\265\310\357=\2326\256\275\233D\230=M\026\005=\315\314\314=\2326\256\275\220%}=\243\032 =\242\357\213<\347VW=\277-7\275M\026\005=\362_\366\275\347VW\275\312\257%\276\007\361\014>\315\314\314\275\342\206\001>\333kb=\2326.>\3261\024\276\347V\327=\3261\024\276\342\206\201\275GRG\276\213\215)>\362_\366\275\347V\327=\2566<=\303\320\020>\362_\366\275t\000\263=\333kb=D\346\305<\233D\230=\342\206\201\275\2566<=\2326.\276\233D\230\275\374Pj\276GRG>\303\320\020\276\000\000\000\000\000\000\000\000\000\000\000\000\000\000\000\000\000\000\000\000\000\000\000\000\000\000\000\000\000\000\000\000\000\000\000\000\000\000\000\000\000\000\000\000\000\000\000\000\000\000\000\000\000\000\000\000\000\000\000\000\000\000\000\000\000\000\000\000\000\000\000\000\000\000\000\000\000\000\000\000\000\000\000\000\000\000\000\000\000\000\000\000\000\000\000\000\000\000\000\000\342\206\001>\333kb=\2326.>\3261\024\276\347V\327=\3261\024\276\342\206\201\275GRG\276\213\215)>\362_\366\275\347V\327=\2566<=\303\320\020>\362_\366\275t\000\263=\333kb=D\346\305<\233D\230=\342\206\201\275\2566<=\2326.\276\233D\230\275\374Pj\276GRG>\303\320\020\276\000\000\000\000\000\000\000\000\000\000\000\000\000\000\000\000\000\000\000\000\000\000\000\000\000\000\000\000\000\000\000\000\000\000\000\000\000\000\000\000\000\000\000\000\000\000\000\000\000\000\000\000\000\000\000\000\000\000\000\000\000\000\000\000\000\000\000\000\000\000\000\000\000\000\000\000\000\000\000\000\000\000\000\000\000\000\000\000\000\000\000\000\000\000\000\000\000\000\000\000\277-\267=\342\206\001>\000\000\000\000\342\206\001>\000\000\000\000\243\032 =\333kb=\000\000\000\000\333kb=\000\000\000\000\362_\366=\2326.>\000\000\000\000\2326.>\000\000\000\0004\224\321\275\3261\024\276\000\000\000\000\3261\024\276\000\000\000\000\233D\230=\347V\327=\000\000\000\000\347V\327=\000\000\000\000\342\206\001>\277-7>\000\000\000\000\277-7>\000\000\000\000\333kb=\243\032\240=\000\000\000\000\243\032\240=\000\000\000\000\2326.>\362_v>\000\000\000\000\362_v>\000\000\000\000\3261\024\2764\224Q\276\000\000\000\0004\224Q\276\000\000\000\000\347V\327=\233D\030>\000\000\000\000\233D\030>\000\000\000\000\000\000\000\000\000\000\000\000\000\000\000\000\000\000\000\000\000\000\000\000\000\000\000\000\000\000\000\000\000\000\000\000\000\000\000\000\000\000\000\000\000\000\000\000\000\000\000\000\000\000\000\000\000\000\000\000\000\000\000\000\000\000\000\000\000\000\000\000\000\000\000\000\000\000\000\000\000\000\000\000\000\000\000\000\000\000\000\000\000\000\000\000\000\000\000\000\000\000\000\000\342\206\001>\277-7>\000\000\000\000\277-7>\000\000\000\000\333kb=\243\032\240=\000\000\000\000\243\032\240=\000\000\000\000\2326.>\362_v>\000\000\000\000\362_v>\000\000\000\000\3261\024\2764\224Q\276\000\000\000\0004\224Q\276\000\000\000\000\347V\327=\233D\030>\000\000\000\000\233D\030>\000\000\000\000\000\000\000\000\000\000\000\000\000\000\000\000\000\000\000\000\000\000\000\000\000\000\000\000\000\000\000\000\000\000\000\000\000\000\000\000\000\000\000\000\000\000\000\000\000\000\000\000\000\000\000\000\000\000\000\000\000\000\000\000\000\000\000\000\000\000\000\000\000\000\000\000\000\000\000\000\000\000\000\000\000\000\000\000\000\000\000\000\000\000\000\000\000\000\000\000\000\000\000\000\277-\267=\243\032 =\362_\366\2754\224\321\275\233D\230\275\243\032 =\242\357\213<\347VW\275\277-7\275M\026\005\275\362_\366=\347VW=\312\257%\276\007\361\014\276\315\314\314\2754\224\321\275\277-7\275\007\361\014>\265\310\357=\2326\256=\233D\230=M\026\005=\315\314\314\275\2326\256\275\220%}\275\342\206\001>\333kb=\2326.\276\3261\024\276\347V\327\275\333kb=D\346\305<\233D\230\275\342\206\201\275\2566<\275\2326.>\233D\230=\374Pj\276GRG\276\303\320\020\276\3261\024\276\342\206\201\275GRG>\213\215)>\362_\366=\347V\327=\2566<=\303\320\020\276\362_\366\275t\000\263\275\000\000\000\000\000\000\000\000\000\000\000\000\000\000\000\000\000\000\000\000\000\000\000\000\000\000\000\000\000\000\000\000\000\000\000\000\000\000\000\000\000\000\000\000\000\000\000\000\000\000\000\000\000\000\000\000\000\000\000\000\000\000\000\000\000\000\000\000\000\000\000\000\000\000\000\000\000\000\000\000\000\000\000\000\000\000\000\000\000\000\000\000\000\000\000\000\000\000\000\000\342\206\001>\333kb=\2326.\276\3261\024\276\347V\327\275\333kb=D\346\305<\233D\230\275\342\206\201\275\2566<\275\2326.>\233D\230=\374Pj\276GRG\276\303\320\020\276\3261\024\276\342\206\201\275GRG>\213\215)>\362_\366=\347V\327=\2566<=\303\320\020\276\362_\366\275t\000\263\275\000\000\000\000\000\000\000\000\000\000\000\000\000\000\000\000\000\000\000\000\000\000\000\000\000\000\000\000\000\000\000\000\000\000\000\000\000\000\000\000\000\000\000\000\000\000\000\000\000\000\000\000\000\000\000\000\000\000\000\000\000\000\000\000\000\000\000\000\000\000\000\000\000\000\000\000\000\000\000\000\000\000\000\000\000\000\000\000\000\000\000\000\000\000\000\000\000\000\000\000\277-\267=4\224\321\275\233D\230\275\243\032 =\362_\366=\243\032 =\277-7\275M\026\005\275\242\357\213<\347VW=\362_\366=\007\361\014\276\315\314\314\275\347VW=\312\257%>4\224\321\275\265\310\357=\2326\256=\277-7\275\007\361\014\276\233D\230=\2326\256\275\220%}\275M\026\005=\315\314\314=\342\206\001>\3261\024\276\347V\327\275\333kb=\2326.>\333kb=\342\206\201\275\2566<\275D\346\305<\233D\230=\2326.>GRG\276\303\320\020\276\233D\230=\374Pj>\3261\024\276\213\215)>\362_\366=\342\206\201\275GRG\276\347V\327=\362_\366\275t\000\263\275\2566<=\303\320\020>\000\000\000\000\000\000\000\000\000\000\000\000\000\000\000\000\000\000\000\000\000\000\000\000\000\000\000\000\000\000\000\000\000\000\000\000\000\000\000\000\000\000\000\000\000\000\000\000\000\000\000\000\000\000\000\000\000\000\000\000\000\000\000\000\000\000\000\000\000\000\000\000\000\000\000\000\000\000\000\000\000\000\000\000\000\000\000\000\000\000\000\000\000\000\000\000\000\000\000\000\342\206\001>\3261\024\276\347V\327\275\333kb=\2326.>\333kb=\342\206\201\275\2566<\275D\346\305<\233D\230=\2326.>GRG\276\303\320\020\276\233D\230=\374Pj>\3261\024\276\213\215)>\362_\366=\342\206\201\275GRG\276\347V\327=\362_\366\275t\000\263\275\2566<=\303\320\020>\000\000\000\000\000\000\000\000\000\000\000\000\000\000\000\000\000\000\000\000\000\000\000\000\000\000\000\000\000\000\000\000\000\000\000\000\000\000\000\000\000\000\000\000\000\000\000\000\000\000\000\000\000\000\000\000\000\000\000\000\000\000\000\000\000\000\000\000\000\000\000\000\000\000\000\000\000\000\000\000\000\000\000\000\000\000\000\000\000\000\000\000\000\000\000\000\000\000\000\000\277-\267=4\224\321\275\233D\230=\243\032 =\362_\366\275\243\032 =\277-7\275M\026\005=\242\357\213<\347VW\275\362_\366=\007\361\014\276\315\314\314=\347VW=\312\257%\2764\224\321\275\265\310\357=\2326\256\275\277-7\275\007\361\014>\233D\230=\2326\256\275\220%}=M\026\005=\315\314\314\275\342\206\001>\3261\024\276\347V\327=\333kb=\2326.\276\333kb=\342\206\201\275\2566<=D\346\305<\233D\230\275\2326.>GRG\276\303\320\020>\233D\230=\374Pj\276\3261\024\276\213\215)>\362_\366\275\342\206\201\275GRG>\347V\327=\362_\366\275t\000\263=\2566<=\303\320\020\276\000\000\000\000\000\000\000\000\000\000\000\000\000\000\000\000\000\000\000\000\000\000\000\000\000\000\000\000\000\000\000\000\000\000\000\000\000\000\000\000\000\000\000\000\000\000\000\000\000\000\000\000\000\000\000\000\000\000\000\000\000\000\000\000\000\000\000\000\000\000\000\000\000\000\000\000\000\000\000\000\000\000\000\000\000\000\000\000\000\000\000\000\000\000\000\000\000\000\000\000\342\206\001>\3261\024\276\347V\327=\333kb=\2326.\276\333kb=\342\206\201\275\2566<=D\346\305<\233D\230\275\2326.>GRG\276\303\320\020>\233D\230=\374Pj\276\3261\024\276\213\215)>\362_\366\275\342\206\201\275GRG>\347V\327=\362_\366\275t\000\263=\2566<=\303\320\020\276\000\000\000\000\000\000\000\000\000\000\000\000\000\000\000\000\000\000\000\000\000\000\000\000\000\000\000\000\000\000\000\000\000\000\000\000\000\000\000\000\000\000\000\000\000\000\000\000\000\000\000\000\000\000\000\000\000\000\000\000\000\000\000\000\000\000\000\000\000\000\000\000\000\000\000\000\000\000\000\000\000\000\000\000\000\000\000\000\000\000\000\000\000\000\000\000\000\000\000\000\277-\267=\243\032 =\362_\366=4\224\321\275\233D\230=\243\032 =\242\357\213<\347VW=\277-7\275M\026\005=\362_\366=\347VW=\312\257%>\007\361\014\276\315\314\314=4\224\321\275\277-7\275\007\361\014\276\265\310\357=\2326\256\275\233D\230=M\026\005=\315\314\314=\2326\256\275\220%}=\342\206\001>\333kb=\2326.>\3261\024\276\347V\327=\333kb=D\346\305<\233D\230=\342\206\201\275\2566<=\2326.>\233D\230=\374Pj>GRG\276\303\320\020>\3261\024\276\342\206\201\275GRG\276\213\215)>\362_\366\275\347V\327=\2566<=\303\320\020>\362_\366\275t\000\263=\000\000\000\000\000\000\000\000\000\000\000\000\000\000\000\000\000\000\000\000\000\000\000\000\000\000\000\000\000\000\000\000\000\000\000\000\000\000\000\000\000\000\000\000\000\000\000\000\000\000\000\000\000\000\000\000\000\000\000\000\000\000\000\000\000\000\000\000\000\000\000\000\000\000\000\000\000\000\000\000\000\000\000\000\000\000\000\000\000\000\000\000\000\000\000\000\000\000\000\000\342\206\001>\333kb=\2326.>\3261\024\276\347V\327=\333kb=D\346\305<\233D\230=\342\206\201\275\2566<=\2326.>\233D\230=\374Pj>GRG\276\303\320\020>\3261\024\276\342\206\201\275GRG\276\213\215)>\362_\366\275\347V\327=\2566<=\303\320\020>\362_\366\275t\000\263=\000\000\000\000\000\000\000\000\000\000\000\000\000\000\000\000\000\000\000\000\000\000\000\000\000\000\000\000\000\000\000\000\000\000\000\000\000\000\000\000\000\000\000\000\000\000\000\000\000\000\000\000\000\000\000\000\000\000\000\000\000\000\000\000\000\000\000\000\000\000\000\000\000\000\000\000\000\000\000\000\000\000\000\000\000\000\000\000\000\000\000\000\000\000\000\000\000\000\000\000\277-\267=\342\206\001>\000\000\000\000\342\206\001>\000\000\000\000\342\206\001>\277-7>\000\000\000\000\277-7>\000\000\000\000\000\000\000\000\000\000\000\000\000\000\000\000\000\000\000\000\000\000\000\000\342\206\001>\277-7>\000\000\000\000\277-7>\000\000\000\000\000\000\000\000\000\000\000\000\000\000\000\000\000\000\000\000\000\000\000\000\243\032 =\333kb=\000\000\000\000\333kb=\000\000\000\000\333kb=\243\032\240=\000\000\000\000\243\032\240=\000\000\000\000\000\000\000\000\000\000\000\000\000\000\000\000\000\000\000\000\000\000\000\000\333kb=\243\032\240=\000\000\000\000\243\032\240=\000\000\000\000\000\000\000\000\000\000\000\000\000\000\000\000\000\000\000\000\000\000\000\000\362_\366\275\2326.\276\000\000\000\000\2326.\276\000\000\000\000\2326.\276\362_v\276\000\000\000\000\362_v\276\000\000\000\000\000\000\000\000\000\000\000\000\000\000\000\000\000\000\000\000\000\000\000\000\2326.\276\362_v\276\000\000\000\000\362_v\276\000\000\000\000\000\000\000\000\000\000\000\000\000\000\000\000\000\000\000\000\000\000\000\0004\224\321\275\3261\024\276\000\000\000\000\3261\024\276\000\000\000\000\3261\024\2764\224Q\276\000\000\000\0004\224Q\276\000\000\000\000\000\000\000\000\000\000\000\000\000\000\000\000\000\000\000\000\000\000\000\000\3261\024\2764\224Q\276\000\000\000\0004\224Q\276\000\000\000\000\000\000\000\000\000\000\000\000\000\000\000\000\000\000\000\000\000\000\000\000\233D\230\275\347V\327\275\000\000\000\000\347V\327\275\000\000\000\000\347V\327\275\233D\030\276\000\000\000\000\233D\030\276\000\000\000\000\000\000\000\000\000\000\000\000\000\000\000\000\000\000\000\000\000\000\000\000\347V\327\275\233D\030\276\000\000\000\000\233D\030\276\000\000\000\000\000\000\000\000\000\000\000\000\000\000\000\000\000\000\000\000\000\000\000\000\277-\267=\243\032 =\362_\366\2754\224\321\275\233D\230\275\342\206\001>\333kb=\2326.\276\3261\024\276\347V\327\275\000\000\000\000\000\000\000\000\000\000\000\000\000\000\000\000\000\000\000\000\342\206\001>\333kb=\2326.\276\3261\024\276\347V\327\275\000\000\000\000\000\000\000\000\000\000\000\000\000\000\000\000\000\000\000\000\243\032 =\242\357\213<\347VW\275\277-7\275M\026\005\275\333kb=D\346\305<\233D\230\275\342\206\201\275\2566<\275\000\000\000\000\000\000\000\000\000\000\000\000\000\000\000\000\000\000\000\000\333kb=D\346\305<\233D\230\275\342\206\201\275\2566<\275\000\000\000\000\000\000\000\000\000\000\000\000\000\000\000\000\000\000\000\000\362_\366\275\347VW\275\312\257%>\007\361\014>\315\314\314=\2326.\276\233D\230\275\374Pj>GRG>\303\320\020>\000\000\000\000\000\000\000\000\000\000\000\000\000\000\000\000\000\000\000\000\2326.\276\233D\230\275\374Pj>GRG>\303\320\020>\000\000\000\000\000\000\000\000\000\000\000\000\000\000\000\000\000\000\000\0004\224\321\275\277-7\275\007\361\014>\265\310\357=\2326\256=\3261\024\276\342\206\201\275GRG>\213\215)>\362_\366=\000\000\000\000\000\000\000\000\000\000\000\000\000\000\000\000\000\000\000\000\3261\024\276\342\206\201\275GRG>\213\215)>\362_\366=\000\000\000\000\000\000\000\000\000\000\000\000\000\000\000\000\000\000\000\000\233D\230\275M\026\005\275\315\314\314=\2326\256=\220%}=\347V\327\275\2566<\275\303\320\020>\362_\366=t\000\263=\000\000\000\000\000\000\000\000\000\000\000\000\000\000\000\000\000\000\000\000\347V\327\275\2566<\275\303\320\020>\362_\366=t\000\263=\000\000\000\000\000\000\000\000\000\000\000\000\000\000\000\000\000\000\000\000\277-\267=4\224\321\275\233D\230\275\243\032 =\362_\366=\342\206\001>\3261\024\276\347V\327\275\333kb=\2326.>\000\000\000\000\000\000\000\000\000\000\000\000\000\000\000\000\000\000\000\000\342\206\001>\3261\024\276\347V\327\275\333kb=\2326.>\000\000\000\000\000\000\000\000\000\000\000\000\000\000\000\000\000\000\000\000\243\032 =\277-7\275M\026\005\275\242\357\213<\347VW=\333kb=\342\206\201\275\2566<\275D\346\305<\233D\230=\000\000\000\000\000\000\000\000\000\000\000\000\000\000\000\000\000\000\000\000\333kb=\342\206\201\275\2566<\275D\346\305<\233D\230=\000\000\000\000\000\000\000\000\000\000\000\000\000\000\000\000\000\000\000\000\362_\366\275\007\361\014>\315\314\314=\347VW\275\312\257%\276\2326.\276GRG>\303\320\020>\233D\230\275\374Pj\276\000\000\000\000\000\000\000\000\000\000\000\000\000\000\000\000\000\000\000\000\2326.\276GRG>\303\320\020>\233D\230\275\374Pj\276\000\000\000\000\000\000\000\000\000\000\000\000\000\000\000\000\000\000\000\0004\224\321\275\265\310\357=\2326\256=\277-7\275\007\361\014\276\3261\024\276\213\215)>\362_\366=\342\206\201\275GRG\276\000\000\000\000\000\000\000\000\000\000\000\000\000\000\000\000\000\000\000\000\3261\024\276\213\215)>\362_\366=\342\206\201\275GRG\276\000\000\000\000\000\000\000\000\000\000\000\000\000\000\000\000\000\000\000\000\233D\230\275\2326\256=\220%}=M\026\005\275\315\314\314\275\347V\327\275\362_\366=t\000\263=\2566<\275\303\320\020\276\000\000\000\000\000\000\000\000\000\000\000\000\000\000\000\000\000\000\000\000\347V\327\275\362_\366=t\000\263=\2566<\275\303\320\020\276\000\000\000\000\000\000\000\000\000\000\000\000\000\000\000\000\000\000\000\000\277-\267=4\224\321\275\233D\230=\243\032 =\362_\366\275\342\206\001>\3261\024\276\347V\327=\333kb=\2326.\276\000\000\000\000\000\000\000\000\000\000\000\000\000\000\000\000\000\000\000\000\342\206\001>\3261\024\276\347V\327=\333kb=\2326.\276\000\000\000\000\000\000\000\000\000\000\000\000\000\000\000\000\000\000\000\000\243\032 =\277-7\275M\026\005=\242\357\213<\347VW\275\333kb=\342\206\201\275\2566<=D\346\305<\233D\230\275\000\000\000\000\000\000\000\000\000\000\000\000\000\000\000\000\000\000\000\000\333kb=\342\206\201\275\2566<=D\346\305<\233D\230\275\000\000\000\000\000\000\000\000\000\000\000\000\000\000\000\000\000\000\000\000\362_\366\275\007\361\014>\315\314\314\275\347VW\275\312\257%>\2326.\276GRG>\303\320\020\276\233D\230\275\374Pj>\000\000\000\000\000\000\000\000\000\000\000\000\000\000\000\000\000\000\000\000\2326.\276GRG>\303\320\020\276\233D\230\275\374Pj>\000\000\000\000\000\000\000\000\000\000\000\000\000\000\000\000\000\000\000\0004\224\321\275\265\310\357=\2326\256\275\277-7\275\007\361\014>\3261\024\276\213\215)>\362_\366\275\342\206\201\275GRG>\000\000\000\000\000\000\000\000\000\000\000\000\000\000\000\000\000\000\000\000\3261\024\276\213\215)>\362_\366\275\342\206\201\275GRG>\000\000\000\000\000\000\000\000\000\000\000\000\000\000\000\000\000\000\000\000\233D\230\275\2326\256=\220%}\275M\026\005\275\315\314\314=\347V\327\275\362_\366=t\000\263\275\2566<\275\303\320\020>\000\000\000\000\000\000\000\000\000\000\000\000\000\000\000\000\000\000\000\000\347V\327\275\362_\366=t\000\263\275\2566<\275\303\320\020>\000\000\000\000\000\000\000\000\000\000\000\000\000\000\000\000\000\000\000\000\277-\267=\243\032 =\362_\366=4\224\321\275\233D\230=\342\206\001>\333kb=\2326.>\3261\024\276\347V\327=\000\000\000\000\000\000\000\000\000\000\000\000\000\000\000\000\000\000\000\000\342\206\001>\333kb=\2326.>\3261\024\276\347V\327=\000\000\000\000\000\000\000\000\000\000\000\000\000\000\000\000\000\000\000\000\243\032 =\242\357\213<\347VW=\277-7\275M\026\005=\333kb=D\346\305<\233D\230=\342\206\201\275\2566<=\000\000\000\000\000\000\000\000\000\000\000\000\000\000\000\000\000\000\000\000\333kb=D\346\305<\233D\230=\342\206\201\275\2566<=\000\000\000\000\000\000\000\000\000\000\000\000\000\000\000\000\000\000\000\000\362_\366\275\347VW\275\312\257%\276\007\361\014>\315\314\314\275\2326.\276\233D\230\275\374Pj\276GRG>\303\320\020\276\000\000\000\000\000\000\000\000\000\000\000\000\000\000\000\000\000\000\000\000\2326.\276\233D\230\275\374Pj\276GRG>\303\320\020\276\000\000\000\000\000\000\000\000\000\000\000\000\000\000\000\000\000\000\000\0004\224\321\275\277-7\275\007\361\014\276\265\310\357=\2326\256\275\3261\024\276\342\206\201\275GRG\276\213\215)>\362_\366\275\000\000\000\000\000\000\000\000\000\000\000\000\000\000\000\000\000\000\000\000\3261\024\276\342\206\201\275GRG\276\213\215)>\362_\366\275\000\000\000\000\000\000\000\000\000\000\000\000\000\000\000\000\000\000\000\000\233D\230\275M\026\005\275\315\314\314\275\2326\256=\220%}\275\347V\327\275\2566<\275\303\320\020\276\362_\366=t\000\263\275\000\000\000\000\000\000\000\000\000\000\000\000\000\000\000\000\000\000\000\000\347V\327\275\2566<\275\303\320\020\276\362_\366=t\000\263\275\000\000\000\000\000\000\000\000\000\000\000\000\000\000\000\000\000\000\000\000\277-\267=\342\206\001>\000\000\000\000\342\206\001>\000\000\000\000\243\032 =\333kb=\000\000\000\000\333kb=\000\000\000\000\362_\366\275\2326.\276\000\000\000\000\2326.\276\000\000\000\0004\224\321\275\3261\024\276\000\000\000\000\3261\024\276\000\000\000\000\233D\230\275\347V\327\275\000\000\000\000\347V\327\275\000\000\000\000\243\032 =\333kb=\000\000\000\000\333kb=\000\000\000\000\242\357\213<D\346\305<\000\000\000\000D\346\305<\000\000\000\000\347VW\275\233D\230\275\000\000\000\000\233D\230\275\000\000\000\000\277-7\275\342\206\201\275\000\000\000\000\342\206\201\275\000\000\000\000M\026\005\275\2566<\275\000\000\000\000\2566<\275\000\000\000\000\362_\366\275\2326.\276\000\000\000\000\2326.\276\000\000\000\000\347VW\275\233D\230\275\000\000\000\000\233D\230\275\000\000\000\000\312\257%>\374Pj>\000\000\000\000\374Pj>\000\000\000\000\007\361\014>GRG>\000\000\000\000GRG>\000\000\000\000\315\314\314=\303\320\020>\000\000\000\000\303\320\020>\000\000\000\0004\224\321\275\3261\024\276\000\000\000\000\3261\024\276\000\000\000\000\277-7\275\342\206\201\275\000\000\000\000\342\206\201\275\000\000\000\000\007\361\014>GRG>\000\000\000\000GRG>\000\000\000\000\265\310\357=\213\215)>\000\000\000\000\213\215)>\000\000\000\000\2326\256=\362_\366=\000\000\000\000\362_\366=\000\000\000\000\233D\230\275\347V\327\275\000\000\000\000\347V\327\275\000\000\000\000M\026\005\275\2566<\275\000\000\000\000\2566<\275\000\000\000\000\315\314\314=\303\320\020>\000\000\000\000\303\320\020>\000\000\000\000\2326\256=\362_\366=\000\000\000\000\362_\366=\000\000\000\000\220%}=t\000\263=\000\000\000\000t\000\263=\000\000\000\000\277-\267=\243\032 =\362_\366\2754\224\321\275\233D\230\275\243\032 =\242\357\213<\347VW\275\277-7\275M\026\005\275\362_\366\275\347VW\275\312\257%>\007\361\014>\315\314\314=4\224\321\275\277-7\275\007\361\014>\265\310\357=\2326\256=\233D\230\275M\026\005\275\315\314\314=\2326\256=\220%}=\243\032 =\242\357\213<\347VW\275\277-7\275M\026\005\275\242\357\213<\002\236\364;\2566\274\274\243\032\240\274\021\245h\274\347VW\275\2566\274\274\303\320\220=\362_v=t\0003=\277-7\275\243\032\240\274\362_v=4\224Q=\233D\030=M\026\005\275\021\245h\274t\0003=\233D\030=#B\335<\362_\366\275\347VW\275\312\257%>\007\361\014>\315\314\314=\347VW\275\2566\274\274\303\320\220=\362_v=t\0003=\312\257%>\303\320\220=\035\331^\276\337\220=\276J\272\t\276\007\361\014>\362_v=\337\220=\276 A!\276\374P\352\275\315\314\314=t\0003=J\272\t\276\374P\352\275\245=\252\2754\224\321\275\277-7\275\007\361\014>\265\310\357=\2326\256=\277-7\275\243\032\240\274\362_v=4\224Q=\233D\030=\007\361\014>\362_v=\337\220=\276 A!\276\374P\352\275\265\310\357=4\224Q= A!\276\323+\t\276GR\307\275\2326\256=\233D\030=\374P\352\275GR\307\275\303\320\220\275\233D\230\275M\026\005\275\315\314\314=\2326\256=\220%}=M\026\005\275\021\245h\274t\0003=\233D\030=#B\335<\315\314\314=t\0003=J\272\t\276\374P\352\275\245=\252\275\2326\256=\233D\030=\374P\352\275GR\307\275\303\320\220\275\220%}=#B\335<\245=\252\275\303\320\220\275\340mR\275\277-\267=4\224\321\275\233D\230\275\243\032 =\362_\366=\243\032 =\277-7\275M\026\005\275\242\357\213<\347VW=\362_\366\275\007\361\014>\315\314\314=\347VW\275\312\257%\2764\224\321\275\265\310\357=\2326\256=\277-7\275\007\361\014\276\233D\230\275\2326\256=\220%}=M\026\005\275\315\314\314\275\243\032 =\277-7\275M\026\005\275\242\357\213<\347VW=\242\357\213<\243\032\240\274\021\245h\274\002\236\364;\2566\274<\347VW\275\362_v=t\0003=\2566\274\274\303\320\220\275\277-7\2754\224Q=\233D\030=\243\032\240\274\362_v\275M\026\005\275\233D\030=#B\335<\021\245h\274t\0003\275\362_\366\275\007\361\014>\315\314\314=\347VW\275\312\257%\276\347VW\275\362_v=t\0003=\2566\274\274\303\320\220\275\312\257%>\337\220=\276J\272\t\276\303\320\220=\035\331^>\007\361\014> A!\276\374P\352\275\362_v=\337\220=>\315\314\314=\374P\352\275\245=\252\275t\0003=J\272\t>4\224\321\275\265\310\357=\2326\256=\277-7\275\007\361\014\276\277-7\2754\224Q=\233D\030=\243\032\240\274\362_v\275\007\361\014> A!\276\374P\352\275\362_v=\337\220=>\265\310\357=\323+\t\276GR\307\2754\224Q= A!>\2326\256=GR\307\275\303\320\220\275\233D\030=\374P\352=\233D\230\275\2326\256=\220%}=M\026\005\275\315\314\314\275M\026\005\275\233D\030=#B\335<\021\245h\274t\0003\275\315\314\314=\374P\352\275\245=\252\275t\0003=J\272\t>\2326\256=GR\307\275\303\320\220\275\233D\030=\374P\352=\220%}=\303\320\220\275\340mR\275#B\335<\245=\252=\277-\267=4\224\321\275\233D\230=\243\032 =\362_\366\275\243\032 =\277-7\275M\026\005=\242\357\213<\347VW\275\362_\366\275\007\361\014>\315\314\314\275\347VW\275\312\257%>4\224\321\275\265\310\357=\2326\256\275\277-7\275\007\361\014>\233D\230\275\2326\256=\220%}\275M\026\005\275\315\314\314=\243\032 =\277-7\275M\026\005=\242\357\213<\347VW\275\242\357\213<\243\032\240\274\021\245h<\002\236\364;\2566\274\274\347VW\275\362_v=t\0003\275\2566\274\274\303\320\220=\277-7\2754\224Q=\233D\030\275\243\032\240\274\362_v=M\026\005\275\233D\030=#B\335\274\021\245h\274t\0003=\362_\366\275\007\361\014>\315\314\314\275\347VW\275\312\257%>\347VW\275\362_v=t\0003\275\2566\274\274\303\320\220=\312\257%>\337\220=\276J\272\t>\303\320\220=\035\331^\276\007\361\014> A!\276\374P\352=\362_v=\337\220=\276\315\314\314=\374P\352\275\245=\252=t\0003=J\272\t\2764\224\321\275\265\310\357=\2326\256\275\277-7\275\007\361\014>\277-7\2754\224Q=\233D\030\275\243\032\240\274\362_v=\007\361\014> A!\276\374P\352=\362_v=\337\220=\276\265\310\357=\323+\t\276GR\307=4\224Q= A!\276\2326\256=GR\307\275\303\320\220=\233D\030=\374P\352\275\233D\230\275\2326\256=\220%}\275M\026\005\275\315\314\314=M\026\005\275\233D\030=#B\335\274\021\245h\274t\0003=\315\314\314=\374P\352\275\245=\252=t\0003=J\272\t\276\2326\256=GR\307\275\303\320\220=\233D\030=\374P\352\275\220%}=\303\320\220\275\340mR=#B\335<\245=\252\275\277-\267=\243\032 =\362_\366=4\224\321\275\233D\230=\243\032 =\242\357\213<\347VW=\277-7\275M\026\005=\362_\366\275\347VW\275\312\257%\276\007\361\014>\315\314\314\2754\224\321\275\277-7\275\007\361\014\276\265\310\357=\2326\256\275\233D\230\275M\026\005\275\315\314\314\275\2326\256=\220%}\275\243\032 =\242\357\213<\347VW=\277-7\275M\026\005=\242\357\213<\002\236\364;\2566\274<\243\032\240\274\021\245h<\347VW\275\2566\274\274\303\320\220\275\362_v=t\0003\275\277-7\275\243\032\240\274\362_v\2754\224Q=\233D\030\275M\026\005\275\021\245h\274t\0003\275\233D\030=#B\335\274\362_\366\275\347VW\275\312\257%\276\007\361\014>\315\314\314\275\347VW\275\2566\274\274\303\320\220\275\362_v=t\0003\275\312\257%>\303\320\220=\035\331^>\337\220=\276J\272\t>\007\361\014>\362_v=\337\220=> A!\276\374P\352=\315\314\314=t\0003=J\272\t>\374P\352\275\245=\252=4\224\321\275\277-7\275\007\361\014\276\265\310\357=\2326\256\275\277-7\275\243\032\240\274\362_v\2754\224Q=\233D\030\275\007\361\014>\362_v=\337\220=> A!\276\374P\352=\265\310\357=4\224Q= A!>\323+\t\276GR\307=\2326\256=\233D\030=\374P\352=GR\307\275\303\320\220=\233D\230\275M\026\005\275\315\314\314\275\2326\256=\220%}\275M\026\005\275\021\245h\274t\0003\275\233D\030=#B\335\274\315\314\314=t\0003=J\272\t>\374P\352\275\245=\252=\2326\256=\233D\030=\374P\352=GR\307\275\303\320\220=\220%}=#B\335<\245=\252=\303\320\220\275\340mR=\277-\267=\342\206\001>\000\000\000\000\342\206\001>\000\000\000\0004\224\321\275\3261\024\276\000\000\000\000\3261\024\276\000\000\000\000\233D\230\275\347V\327\275\000\000\000\000\347V\327\275\000\000\000\000\243\032 =\333kb=\000\000\000\000\333kb=\000\000\000\000\362_\366=\2326.>\000\000\000\000\2326.>\000\000\000\000\243\032 =\333kb=\000\000\000\000\333kb=\000\000\000\000\277-7\275\342\206\201\275\000\000\000\000\342\206\201\275\000\000\000\000M\026\005\275\2566<\275\000\000\000\000\2566<\275\000\000\000\000\242\357\213<D\346\305<\000\000\000\000D\346\305<\000\000\000\000\347VW=\233D\230=\000\000\000\000\233D\230=\000\000\000\000\362_\366\275\2326.\276\000\000\000\000\2326.\276\000\000\000\000\007\361\014>GRG>\000\000\000\000GRG>\000\000\000\000\315\314\314=\303\320\020>\000\000\000\000\303\320\020>\000\000\000\000\347VW\275\233D\230\275\000\000\000\000\233D\230\275\000\000\000\000\312\257%\276\374Pj\276\000\000\000\000\374Pj\276\000\000\000\0004\224\321\275\3261\024\276\000\000\000\000\3261\024\276\000\000\000\000\265\310\357=\213\215)>\000\000\000\000\213\215)>\000\000\000\000\2326\256=\362_\366=\000\000\000\000\362_\366=\000\000\000\000\277-7\275\342\206\201\275\000\000\000\000\342\206\201\275\000\000\000\000\007\361\014\276GRG\276\000\000\000\000GRG\276\000\000\000\000\233D\230\275\347V\327\275\000\000\000\000\347V\327\275\000\000\000\000\2326\256=\362_\366=\000\000\000\000\362_\366=\000\000\000\000\220%}=t\000\263=\000\000\000\000t\000\263=\000\000\000\000M\026\005\275\2566<\275\000\000\000\000\2566<\275\000\000\000\000\315\314\314\275\303\320\020\276\000\000\000\000\303\320\020\276\000\000\000\000\277-\267=\243\032 =\362_\366\2754\224\321\275\233D\230\2754\224\321\275\277-7\275\007\361\014>\265\310\357=\2326\256=\233D\230\275M\026\005\275\315\314\314=\2326\256=\220%}=\243\032 =\242\357\213<\347VW\275\277-7\275M\026\005\275\362_\366=\347VW=\312\257%\276\007\361\014\276\315\314\314\275\243\032 =\242\357\213<\347VW\275\277-7\275M\026\005\275\277-7\275\243\032\240\274\362_v=4\224Q=\233D\030=M\026\005\275\021\245h\274t\0003=\233D\030=#B\335<\242\357\213<\002\236\364;\2566\274\274\243\032\240\274\021\245h\274\347VW=\2566\274<\303\320\220\275\362_v\275t\0003\275\362_\366\275\347VW\275\312\257%>\007\361\014>\315\314\314=\007\361\014>\362_v=\337\220=\276 A!\276\374P\352\275\315\314\314=t\0003=J\272\t\276\374P\352\275\245=\252\275\347VW\275\2566\274\274\303\320\220=\362_v=t\0003=\312\257%\276\303\320\220\275\035\331^>\337\220=>J\272\t>4\224\321\275\277-7\275\007\361\014>\265\310\357=\2326\256=\265\310\357=4\224Q= A!\276\323+\t\276GR\307\275\2326\256=\233D\030=\374P\352\275GR\307\275\303\320\220\275\277-7\275\243\032\240\274\362_v=4\224Q=\233D\030=\007\361\014\276\362_v\275\337\220=> A!>\374P\352=\233D\230\275M\026\005\275\315\314\314=\2326\256=\220%}=\2326\256=\233D\030=\374P\352\275GR\307\275\303\320\220\275\220%}=#B\335<\245=\252\275\303\320\220\275\340mR\275M\026\005\275\021\245h\274t\0003=\233D\030=#B\335<\315\314\314\275t\0003\275J\272\t>\374P\352=\245=\252=\277-\267=4\224\321\275\233D\230\275\243\032 =\362_\366=4\224\321\275\265\310\357=\2326\256=\277-7\275\007\361\014\276\233D\230\275\2326\256=\220%}=M\026\005\275\315\314\314\275\243\032 =\277-7\275M\026\005\275\242\357\213<\347VW=\362_\366=\007\361\014\276\315\314\314\275\347VW=\312\257%>\243\032 =\277-7\275M\026\005\275\242\357\213<\347VW=\277-7\2754\224Q=\233D\030=\243\032\240\274\362_v\275M\026\005\275\233D\030=#B\335<\021\245h\274t\0003\275\242\357\213<\243\032\240\274\021\245h\274\002\236\364;\2566\274<\347VW=\362_v\275t\0003\275\2566\274<\303\320\220=\362_\366\275\007\361\014>\315\314\314=\347VW\275\312\257%\276\007\361\014> A!\276\374P\352\275\362_v=\337\220=>\315\314\314=\374P\352\275\245=\252\275t\0003=J\272\t>\347VW\275\362_v=t\0003=\2566\274\274\303\320\220\275\312\257%\276\337\220=>J\272\t>\303\320\220\275\035\331^\2764\224\321\275\265\310\357=\2326\256=\277-7\275\007\361\014\276\265\310\357=\323+\t\276GR\307\2754\224Q= A!>\2326\256=GR\307\275\303\320\220\275\233D\030=\374P\352=\277-7\2754\224Q=\233D\030=\243\032\240\274\362_v\275\007\361\014\276 A!>\374P\352=\362_v\275\337\220=\276\233D\230\275\2326\256=\220%}=M\026\005\275\315\314\314\275\2326\256=GR\307\275\303\320\220\275\233D\030=\374P\352=\220%}=\303\320\220\275\340mR\275#B\335<\245=\252=M\026\005\275\233D\030=#B\335<\021\245h\274t\0003\275\315\314\314\275\374P\352=\245=\252=t\0003\275J\272\t\276\277-\267=4\224\321\275\233D\230=\243\032 =\362_\366\2754\224\321\275\265\310\357=\2326\256\275\277-7\275\007\361\014>\233D\230\275\2326\256=\220%}\275M\026\005\275\315\314\314=\243\032 =\277-7\275M\026\005=\242\357\213<\347VW\275\362_\366=\007\361\014\276\315\314\314=\347VW=\312\257%\276\243\032 =\277-7\275M\026\005=\242\357\213<\347VW\275\277-7\2754\224Q=\233D\030\275\243\032\240\274\362_v=M\026\005\275\233D\030=#B\335\274\021\245h\274t\0003=\242\357\213<\243\032\240\274\021\245h<\002\236\364;\2566\274\274\347VW=\362_v\275t\0003=\2566\274<\303\320\220\275\362_\366\275\007\361\014>\315\314\314\275\347VW\275\312\257%>\007\361\014> A!\276\374P\352=\362_v=\337\220=\276\315\314\314=\374P\352\275\245=\252=t\0003=J\272\t\276\347VW\275\362_v=t\0003\275\2566\274\274\303\320\220=\312\257%\276\337\220=>J\272\t\276\303\320\220\275\035\331^>4\224\321\275\265\310\357=\2326\256\275\277-7\275\007\361\014>\265\310\357=\323+\t\276GR\307=4\224Q= A!\276\2326\256=GR\307\275\303\320\220=\233D\030=\374P\352\275\277-7\2754\224Q=\233D\030\275\243\032\240\274\362_v=\007\361\014\276 A!>\374P\352\275\362_v\275\337\220=>\233D\230\275\2326\256=\220%}\275M\026\005\275\315\314\314=\2326\256=GR\307\275\303\320\220=\233D\030=\374P\352\275\220%}=\303\320\220\275\340mR=#B\335<\245=\252\275M\026\005\275\233D\030=#B\335\274\021\245h\274t\0003=\315\314\314\275\374P\352=\245=\252\275t\0003\275J\272\t>\277-\267=\243\032 =\362_\366=4\224\321\275\233D\230=4\224\321\275\277-7\275\007\361\014\276\265\310\357=\2326\256\275\233D\230\275M\026\005\275\315\314\314\275\2326\256=\220%}\275\243\032 =\242\357\213<\347VW=\277-7\275M\026\005=\362_\366=\347VW=\312\257%>\007\361\014\276\315\314\314=\243\032 =\242\357\213<\347VW=\277-7\275M\026\005=\277-7\275\243\032\240\274\362_v\2754\224Q=\233D\030\275M\026\005\275\021\245h\274t\0003\275\233D\030=#B\335\274\242\357\213<\002\236\364;\2566\274<\243\032\240\274\021\245h<\347VW=\2566\274<\303\320\220=\362_v\275t\0003=\362_\366\275\347VW\275\312\257%\276\007\361\014>\315\314\314\275\007\361\014>\362_v=\337\220=> A!\276\374P\352=\315\314\314=t\0003=J\272\t>\374P\352\275\245=\252=\347VW\275\2566\274\274\303\320\220\275\362_v=t\0003\275\312\257%\276\303\320\220\275\035\331^\276\337\220=>J\272\t\2764\224\321\275\277-7\275\007\361\014\276\265\310\357=\2326\256\275\265\310\357=4\224Q= A!>\323+\t\276GR\307=\2326\256=\233D\030=\374P\352=GR\307\275\303\320\220=\277-7\275\243\032\240\274\362_v\2754\224Q=\233D\030\275\007\361\014\276\362_v\275\337\220=\276 A!>\374P\352\275\233D\230\275M\026\005\275\315\314\314\275\2326\256=\220%}\275\2326\256=\233D\030=\374P\352=GR\307\275\303\320\220=\220%}=#B\335<\245=\252=\303\320\220\275\340mR=M\026\005\275\021\245h\274t\0003\275\233D\030=#B\335\274\315\314\314\275t\0003\275J\272\t\276\374P\352=\245=\252\275\277-\267=\342\206\001>\000\000\000\000\342\206\001>\000\000\000\0004\224\321\275\3261\024\276\000\000\000\000\3261\024\276\000\000\000\000\233D\230=\347V\327=\000\000\000\000\347V\327=\000\000\000\000\243\032 =\333kb=\000\000\000\000\333kb=\000\000\000\000\362_\366\275\2326.\276\000\000\000\000\2326.\276\000\000\000\000\243\032 =\333kb=\000\000\000\000\333kb=\000\000\000\000\277-7\275\342\206\201\275\000\000\000\000\342\206\201\275\000\000\000\000M\026\005=\2566<=\000\000\000\000\2566<=\000\000\000\000\242\357\213<D\346\305<\000\000\000\000D\346\305<\000\000\000\000\347VW\275\233D\230\275\000\000\000\000\233D\230\275\000\000\000\000\362_\366\275\2326.\276\000\000\000\000\2326.\276\000\000\000\000\007\361\014>GRG>\000\000\000\000GRG>\000\000\000\000\315\314\314\275\303\320\020\276\000\000\000\000\303\320\020\276\000\000\000\000\347VW\275\233D\230\275\000\000\000\000\233D\230\275\000\000\000\000\312\257%>\374Pj>\000\000\000\000\374Pj>\000\000\000\0004\224\321\275\3261\024\276\000\000\000\000\3261\024\276\000\000\000\000\265\310\357=\213\215)>\000\000\000\000\213\215)>\000\000\000\000\2326\256\275\362_\366\275\000\000\000\000\362_\366\275\000\000\000\000\277-7\275\342\206\201\275\000\000\000\000\342\206\201\275\000\000\000\000\007\361\014>GRG>\000\000\000\000GRG>\000\000\000\000\233D\230\275\347V\327\275\000\000\000\000\347V\327\275\000\000\000\000\2326\256=\362_\366=\000\000\000\000\362_\366=\000\000\000\000\220%}\275t\000\263\275\000\000\000\000t\000\263\275\000\000\000\000M\026\005\275\2566<\275\000\000\000\000\2566<\275\000\000\000\000\315\314\314=\303\320\020>\000\000\000\000\303\320\020>\000\000\000\000\277-\267=\243\032 =\362_\366\2754\224\321\275\233D\230\2754\224\321\275\277-7\275\007\361\014>\265\310\357=\2326\256=\233D\230=M\026\005=\315\314\314\275\2326\256\275\220%}\275\243\032 =\242\357\213<\347VW\275\277-7\275M\026\005\275\362_\366\275\347VW\275\312\257%>\007\361\014>\315\314\314=\243\032 =\242\357\213<\347VW\275\277-7\275M\026\005\275\277-7\275\243\032\240\274\362_v=4\224Q=\233D\030=M\026\005=\021\245h<t\0003\275\233D\030\275#B\335\274\242\357\213<\002\236\364;\2566\274\274\243\032\240\274\021\245h\274\347VW\275\2566\274\274\303\320\220=\362_v=t\0003=\362_\366\275\347VW\275\312\257%>\007\361\014>\315\314\314=\007\361\014>\362_v=\337\220=\276 A!\276\374P\352\275\315\314\314\275t\0003\275J\272\t>\374P\352=\245=\252=\347VW\275\2566\274\274\303\320\220=\362_v=t\0003=\312\257%>\303\320\220=\035\331^\276\337\220=\276J\272\t\2764\224\321\275\277-7\275\007\361\014>\265\310\357=\2326\256=\265\310\357=4\224Q= A!\276\323+\t\276GR\307\275\2326\256\275\233D\030\275\374P\352=GR\307=\303\320\220=\277-7\275\243\032\240\274\362_v=4\224Q=\233D\030=\007\361\014>\362_v=\337\220=\276 A!\276\374P\352\275\233D\230\275M\026\005\275\315\314\314=\2326\256=\220%}=\2326\256=\233D\030=\374P\352\275GR\307\275\303\320\220\275\220%}\275#B\335\274\245=\252=\303\320\220=\340mR=M\026\005\275\021\245h\274t\0003=\233D\030=#B\335<\315\314\314=t\0003=J\272\t\276\374P\352\275\245=\252\275\277-\267=4\224\321\275\233D\230\275\243\032 =\362_\366=4\224\321\275\265\310\357=\2326\256=\277-7\275\007\361\014\276\233D\230=\2326\256\275\220%}\275M\026\005=\315\314\314=\243\032 =\277-7\275M\026\005\275\242\357\213<\347VW=\362_\366\275\007\361\014>\315\314\314=\347VW\275\312\257%\276\243\032 =\277-7\275M\026\005\275\242\357\213<\347VW=\277-7\2754\224Q=\233D\030=\243\032\240\274\362_v\275M\026\005=\233D\030\275#B\335\274\021\245h<t\0003=\242\357\213<\243\032\240\274\021\245h\274\002\236\364;\2566\274<\347VW\275\362_v=t\0003=\2566\274\274\303\320\220\275\362_\366\275\007\361\014>\315\314\314=\347VW\275\312\257%\276\007\361\014> A!\276\374P\352\275\362_v=\337\220=>\315\314\314\275\374P\352=\245=\252=t\0003\275J\272\t\276\347VW\275\362_v=t\0003=\2566\274\274\303\320\220\275\312\257%>\337\220=\276J\272\t\276\303\320\220=\035\331^>4\224\321\275\265\310\357=\2326\256=\277-7\275\007\361\014\276\265\310\357=\323+\t\276GR\307\2754\224Q= A!>\2326\256\275GR\307=\303\320\220=\233D\030\275\374P\352\275\277-7\2754\224Q=\233D\030=\243\032\240\274\362_v\275\007\361\014> A!\276\374P\352\275\362_v=\337\220=>\233D\230\275\2326\256=\220%}=M\026\005\275\315\314\314\275\2326\256=GR\307\275\303\320\220\275\233D\030=\374P\352=\220%}\275\303\320\220=\340mR=#B\335\274\245=\252\275M\026\005\275\233D\030=#B\335<\021\245h\274t\0003\275\315\314\314=\374P\352\275\245=\252\275t\0003=J\272\t>\277-\267=4\224\321\275\233D\230=\243\032 =\362_\366\2754\224\321\275\265\310\357=\2326\256\275\277-7\275\007\361\014>\233D\230=\2326\256\275\220%}=M\026\005=\315\314\314\275\243\032 =\277-7\275M\026\005=\242\357\213<\347VW\275\362_\366\275\007\361\014>\315\314\314\275\347VW\275\312\257%>\243\032 =\277-7\275M\026\005=\242\357\213<\347VW\275\277-7\2754\224Q=\233D\030\275\243\032\240\274\362_v=M\026\005=\233D\030\275#B\335<\021\245h<t\0003\275\242\357\213<\243\032\240\274\021\245h<\002\236\364;\2566\274\274\347VW\275\362_v=t\0003\275\2566\274\274\303\320\220=\362_\366\275\007\361\014>\315\314\314\275\347VW\275\312\257%>\007\361\014> A!\276\374P\352=\362_v=\337\220=\276\315\314\314\275\374P\352=\245=\252\275t\0003\275J\272\t>\347VW\275\362_v=t\0003\275\2566\274\274\303\320\220=\312\257%>\337\220=\276J\272\t>\303\320\220=\035\331^\2764\224\321\275\265\310\357=\2326\256\275\277-7\275\007\361\014>\265\310\357=\323+\t\276GR\307=4\224Q= A!\276\2326\256\275GR\307=\303\320\220\275\233D\030\275\374P\352=\277-7\2754\224Q=\233D\030\275\243\032\240\274\362_v=\007\361\014> A!\276\374P\352=\362_v=\337\220=\276\233D\230\275\2326\256=\220%}\275M\026\005\275\315\314\314=\2326\256=GR\307\275\303\320\220=\233D\030=\374P\352\275\220%}\275\303\320\220=\340mR\275#B\335\274\245=\252=M\026\005\275\233D\030=#B\335\274\021\245h\274t\0003=\315\314\314=\374P\352\275\245=\252=t\0003=J\272\t\276\277-\267=\243\032 =\362_\366=4\224\321\275\233D\230=4\224\321\275\277-7\275\007\361\014\276\265\310\357=\2326\256\275\233D\230=M\026\005=\315\314\314=\2326\256\275\220%}=\243\032 =\242\357\213<\347VW=\277-7\275M\026\005=\362_\366\275\347VW\275\312\257%\276\007\361\014>\315\314\314\275\243\032 =\242\357\213<\347VW=\277-7\275M\026\005=\277-7\275\243\032\240\274\362_v\2754\224Q=\233D\030\275M\026\005=\021\245h<t\0003=\233D\030\275#B\335<\242\357\213<\002\236\364;\2566\274<\243\032\240\274\021\245h<\347VW\275\2566\274\274\303\320\220\275\362_v=t\0003\275\362_\366\275\347VW\275\312\257%\276\007\361\014>\315\314\314\275\007\361\014>\362_v=\337\220=> A!\276\374P\352=\315\314\314\275t\0003\275J\272\t\276\374P\352=\245=\252\275\347VW\275\2566\274\274\303\320\220\275\362_v=t\0003\275\312\257%>\303\320\220=\035\331^>\337\220=\276J\272\t>4\224\321\275\277-7\275\007\361\014\276\265\310\357=\2326\256\275\265\310\357=4\224Q= A!>\323+\t\276GR\307=\2326\256\275\233D\030\275\374P\352\275GR\307=\303\320\220\275\277-7\275\243\032\240\274\362_v\2754\224Q=\233D\030\275\007\361\014>\362_v=\337\220=> A!\276\374P\352=\233D\230\275M\026\005\275\315\314\314\275\2326\256=\220%}\275\2326\256=\233D\030=\374P\352=GR\307\275\303\320\220=\220%}\275#B\335\274\245=\252\275\303\320\220=\340mR\275M\026\005\275\021\245h\274t\0003\275\233D\030=#B\335\274\315\314\314=t\0003=J\272\t>\374P\352\275\245=\252=\277-\267=\342\206\001>\000\000\000\000\342\206\001>\000\000\000\000\243\032 =\333kb=\000\000\000\000\333kb=\000\000\000\000\362_\366=\2326.>\000\000\000\000\2326.>\000\000\000\0004\224\321\275\3261\024\276\000\000\000\000\3261\024\276\000\000\000\000\233D\230=\347V\327=\000\000\000\000\347V\327=\000\000\000\000\243\032 =\333kb=\000\000\000\000\333kb=\000\000\000\000\242\357\213<D\346\305<\000\000\000\000D\346\305<\000\000\000\000\347VW=\233D\230=\000\000\000\000\233D\230=\000\000\000\000\277-7\275\342\206\201\275\000\000\000\000\342\206\201\275\000\000\000\000M\026\005=\2566<=\000\000\000\000\2566<=\000\000\000\000\362_\366\275\2326.\276\000\000\000\000\2326.\276\000\000\000\000\347VW\275\233D\230\275\000\000\000\000\233D\230\275\000\000\000\000\312\257%\276\374Pj\276\000\000\000\000\374Pj\276\000\000\000\000\007\361\014>GRG>\000\000\000\000GRG>\000\000\000\000\315\314\314\275\303\320\020\276\000\000\000\000\303\320\020\276\000\000\000\0004\224\321\275\3261\024\276\000\000\000\000\3261\024\276\000\000\000\000\277-7\275\342\206\201\275\000\000\000\000\342\206\201\275\000\000\000\000\007\361\014\276GRG\276\000\000\000\000GRG\276\000\000\000\000\265\310\357=\213\215)>\000\000\000\000\213\215)>\000\000\000\000\2326\256\275\362_\366\275\000\000\000\000\362_\366\275\000\000\000\000\233D\230\275\347V\327\275\000\000\000\000\347V\327\275\000\000\000\000M\026\005\275\2566<\275\000\000\000\000\2566<\275\000\000\000\000\315\314\314\275\303\320\020\276\000\000\000\000\303\320\020\276\000\000\000\000\2326\256=\362_\366=\000\000\000\000\362_\366=\000\000\000\000\220%}\275t\000\263\275\000\000\000\000t\000\263\275\000\000\000\000\277-\267=\243\032 =\362_\366\2754\224\321\275\233D\230\275\243\032 =\242\357\213<\347VW\275\277-7\275M\026\005\275\362_\366=\347VW=\312\257%\276\007\361\014\276\315\314\314\2754\224\321\275\277-7\275\007\361\014>\265\310\357=\2326\256=\233D\230=M\026\005=\315\314\314\275\2326\256\275\220%}\275\243\032 =\242\357\213<\347VW\275\277-7\275M\026\005\275\242\357\213<\002\236\364;\2566\274\274\243\032\240\274\021\245h\274\347VW=\2566\274<\303\320\220\275\362_v\275t\0003\275\277-7\275\243\032\240\274\362_v=4\224Q=\233D\030=M\026\005=\021\245h<t\0003\275\233D\030\275#B\335\274\362_\366\275\347VW\275\312\257%>\007\361\014>\315\314\314=\347VW\275\2566\274\274\303\320\220=\362_v=t\0003=\312\257%\276\303\320\220\275\035\331^>\337\220=>J\272\t>\007\361\014>\362_v=\337\220=\276 A!\276\374P\352\275\315\314\314\275t\0003\275J\272\t>\374P\352=\245=\252=4\224\321\275\277-7\275\007\361\014>\265\310\357=\2326\256=\277-7\275\243\032\240\274\362_v=4\224Q=\233D\030=\007\361\014\276\362_v\275\337\220=> A!>\374P\352=\265\310\357=4\224Q= A!\276\323+\t\276GR\307\275\2326\256\275\233D\030\275\374P\352=GR\307=\303\320\220=\233D\230\275M\026\005\275\315\314\314=\2326\256=\220%}=M\026\005\275\021\245h\274t\0003=\233D\030=#B\335<\315\314\314\275t\0003\275J\272\t>\374P\352=\245=\252=\2326\256=\233D\030=\374P\352\275GR\307\275\303\320\220\275\220%}\275#B\335\274\245=\252=\303\320\220=\340mR=\277-\267=4\224\321\275\233D\230\275\243\032 =\362_\366=\243\032 =\277-7\275M\026\005\275\242\357\213<\347VW=\362_\366=\007\361\014\276\315\314\314\275\347VW=\312\257%>4\224\321\275\265\310\357=\2326\256=\277-7\275\007\361\014\276\233D\230=\2326\256\275\220%}\275M\026\005=\315\314\314=\243\032 =\277-7\275M\026\005\275\242\357\213<\347VW=\242\357\213<\243\032\240\274\021\245h\274\002\236\364;\2566\274<\347VW=\362_v\275t\0003\275\2566\274<\303\320\220=\277-7\2754\224Q=\233D\030=\243\032\240\274\362_v\275M\026\005=\233D\030\275#B\335\274\021\245h<t\0003=\362_\366\275\007\361\014>\315\314\314=\347VW\275\312\257%\276\347VW\275\362_v=t\0003=\2566\274\274\303\320\220\275\312\257%\276\337\220=>J\272\t>\303\320\220\275\035\331^\276\007\361\014> A!\276\374P\352\275\362_v=\337\220=>\315\314\314\275\374P\352=\245=\252=t\0003\275J\272\t\2764\224\321\275\265\310\357=\2326\256=\277-7\275\007\361\014\276\277-7\2754\224Q=\233D\030=\243\032\240\274\362_v\275\007\361\014\276 A!>\374P\352=\362_v\275\337\220=\276\265\310\357=\323+\t\276GR\307\2754\224Q= A!>\2326\256\275GR\307=\303\320\220=\233D\030\275\374P\352\275\233D\230\275\2326\256=\220%}=M\026\005\275\315\314\314\275M\026\005\275\233D\030=#B\335<\021\245h\274t\0003\275\315\314\314\275\374P\352=\245=\252=t\0003\275J\272\t\276\2326\256=GR\307\275\303\320\220\275\233D\030=\374P\352=\220%}\275\303\320\220=\340mR=#B\335\274\245=\252\275\277-\267=4\224\321\275\233D\230=\243\032 =\362_\366\275\243\032 =\277-7\275M\026\005=\242\357\213<\347VW\275\362_\366=\007\361\014\276\315\314\314=\347VW=\312\257%\2764\224\321\275\265\310\357=\2326\256\275\277-7\275\007\361\014>\233D\230=\2326\256\275\220%}=M\026\005=\315\314\314\275\243\032 =\277-7\275M\026\005=\242\357\213<\347VW\275\242\357\213<\243\032\240\274\021\245h<\002\236\364;\2566\274\274\347VW=\362_v\275t\0003=\2566\274<\303\320\220\275\277-7\2754\224Q=\233D\030\275\243\032\240\274\362_v=M\026\005=\233D\030\275#B\335<\021\245h<t\0003\275\362_\366\275\007\361\014>\315\314\314\275\347VW\275\312\257%>\347VW\275\362_v=t\0003\275\2566\274\274\303\320\220=\312\257%\276\337\220=>J\272\t\276\303\320\220\275\035\331^>\007\361\014> A!\276\374P\352=\362_v=\337\220=\276\315\314\314\275\374P\352=\245=\252\275t\0003\275J\272\t>4\224\321\275\265\310\357=\2326\256\275\277-7\275\007\361\014>\277-7\2754\224Q=\233D\030\275\243\032\240\274\362_v=\007\361\014\276 A!>\374P\352\275\362_v\275\337\220=>\265\310\357=\323+\t\276GR\307=4\224Q= A!\276\2326\256\275GR\307=\303\320\220\275\233D\030\275\374P\352=\233D\230\275\2326\256=\220%}\275M\026\005\275\315\314\314=M\026\005\275\233D\030=#B\335\274\021\245h\274t\0003=\315\314\314\275\374P\352=\245=\252\275t\0003\275J\272\t>\2326\256=GR\307\275\303\320\220=\233D\030=\374P\352\275\220%}\275\303\320\220=\340mR\275#B\335\274\245=\252=\277-\267=\243\032 =\362_\366=4\224\321\275\233D\230=\243\032 =\242\357\213<\347VW=\277-7\275M\026\005=\362_\366=\347VW=\312\257%>\007\361\014\276\315\314\314=4\224\321\275\277-7\275\007\361\014\276\265\310\357=\2326\256\275\233D\230=M\026\005=\315\314\314=\2326\256\275\220%}=\243\032 =\242\357\213<\347VW=\277-7\275M\026\005=\242\357\213<\002\236\364;\2566\274<\243\032\240\274\021\245h<\347VW=\2566\274<\303\320\220=\362_v\275t\0003=\277-7\275\243\032\240\274\362_v\2754\224Q=\233D\030\275M\026\005=\021\245h<t\0003=\233D\030\275#B\335<\362_\366\275\347VW\275\312\257%\276\007\361\014>\315\314\314\275\347VW\275\2566\274\274\303\320\220\275\362_v=t\0003\275\312\257%\276\303\320\220\275\035\331^\276\337\220=>J\272\t\276\007\361\014>\362_v=\337\220=> A!\276\374P\352=\315\314\314\275t\0003\275J\272\t\276\374P\352=\245=\252\2754\224\321\275\277-7\275\007\361\014\276\265\310\357=\2326\256\275\277-7\275\243\032\240\274\362_v\2754\224Q=\233D\030\275\007\361\014\276\362_v\275\337\220=\276 A!>\374P\352\275\265\310\357=4\224Q= A!>\323+\t\276GR\307=\2326\256\275\233D\030\275\374P\352\275GR\307=\303\320\220\275\233D\230\275M\026\005\275\315\314\314\275\2326\256=\220%}\275M\026\005\275\021\245h\274t\0003\275\233D\030=#B\335\274\315\314\314\275t\0003\275J\272\t\276\374P\352=\245=\252\275\2326\256=\233D\030=\374P\352=GR\307\275\303\320\220=\220%}\275#B\335\274\245=\252\275\303\320\220=\340mR\275\277-\267=\342\206\001>\000\000\000\000\342\206\001>\000\000\000\000\342\206\001>\277-7>\000\000\000\000\277-7>\000\000\000\000\000\000\000\000\000\000\000\000\000\000\000\000\000\000\000\000\000\000\000\000\342\206\001>\277-7>\000\000\000\000\277-7>\000\000\000\000\000\000\000\000\000\000\000\000\000\000\000\000\000\000\000\000\000\000\000\0004\224\321\275\3261\024\276\000\000\000\000\3261\024\276\000\000\000\000\3261\024\2764\224Q\276\000\000\000\0004\224Q\276\000\000\000\000\000\000\000\000\000\000\000\000\000\000\000\000\000\000\000\000\000\000\000\000\3261\024\2764\224Q\276\000\000\000\0004\224Q\276\000\000\000\000\000\000\000\000\000\000\000\000\000\000\000\000\000\000\000\000\000\000\000\000\233D\230\275\347V\327\275\000\000\000\000\347V\327\275\000\000\000\000\347V\327\275\233D\030\276\000\000\000\000\233D\030\276\000\000\000\000\000\000\000\000\000\000\000\000\000\000\000\000\000\000\000\000\000\000\000\000\347V\327\275\233D\030\276\000\000\000\000\233D\030\276\000\000\000\000\000\000\000\000\000\000\000\000\000\000\000\000\000\000\000\000\000\000\000\000\243\032 =\333kb=\000\000\000\000\333kb=\000\000\000\000\333kb=\243\032\240=\000\000\000\000\243\032\240=\000\000\000\000\000\000\000\000\000\000\000\000\000\000\000\000\000\000\000\000\000\000\000\000\333kb=\243\032\240=\000\000\000\000\243\032\240=\000\000\000\000\000\000\000\000\000\000\000\000\000\000\000\000\000\000\000\000\000\000\000\000\362_\366=\2326.>\000\000\000\000\2326.>\000\000\000\000\2326.>\362_v>\000\000\000\000\362_v>\000\000\000\000\000\000\000\000\000\000\000\000\000\000\000\000\000\000\000\000\000\000\000\000\2326.>\362_v>\000\000\000\000\362_v>\000\000\000\000\000\000\000\000\000\000\000\000\000\000\000\000\000\000\000\000\000\000\000\000\277-\267=\243\032 =\362_\366\2754\224\321\275\233D\230\275\342\206\001>\333kb=\2326.\276\3261\024\276\347V\327\275\000\000\000\000\000\000\000\000\000\000\000\000\000\000\000\000\000\000\000\000\342\206\001>\333kb=\2326.\276\3261\024\276\347V\327\275\000\000\000\000\000\000\000\000\000\000\000\000\000\000\000\000\000\000\000\0004\224\321\275\277-7\275\007\361\014>\265\310\357=\2326\256=\3261\024\276\342\206\201\275GRG>\213\215)>\362_\366=\000\000\000\000\000\000\000\000\000\000\000\000\000\000\000\000\000\000\000\000\3261\024\276\342\206\201\275GRG>\213\215)>\362_\366=\000\000\000\000\000\000\000\000\000\000\000\000\000\000\000\000\000\000\000\000\233D\230\275M\026\005\275\315\314\314=\2326\256=\220%}=\347V\327\275\2566<\275\303\320\020>\362_\366=t\000\263=\000\000\000\000\000\000\000\000\000\000\000\000\000\000\000\000\000\000\000\000\347V\327\275\2566<\275\303\320\020>\362_\366=t\000\263=\000\000\000\000\000\000\000\000\000\000\000\000\000\000\000\000\000\000\000\000\243\032 =\242\357\213<\347VW\275\277-7\275M\026\005\275\333kb=D\346\305<\233D\230\275\342\206\201\275\2566<\275\000\000\000\000\000\000\000\000\000\000\000\000\000\000\000\000\000\000\000\000\333kb=D\346\305<\233D\230\275\342\206\201\275\2566<\275\000\000\000\000\000\000\000\000\000\000\000\000\000\000\000\000\000\000\000\000\362_\366=\347VW=\312\257%\276\007\361\014\276\315\314\314\275\2326.>\233D\230=\374Pj\276GRG\276\303\320\020\276\000\000\000\000\000\000\000\000\000\000\000\000\000\000\000\000\000\000\000\000\2326.>\233D\230=\374Pj\276GRG\276\303\320\020\276\000\000\000\000\000\000\000\000\000\000\000\000\000\000\000\000\000\000\000\000\277-\267=4\224\321\275\233D\230\275\243\032 